<unk>	0
<s>	0
</s>	0
.	-3.32783
▁	-3.61185
..	-4.25871
...	-4.50157
▁영화	-4.50572
이	-4.67769
의	-4.7232
,	-4.78113
도	-4.85206
가	-4.89714
는	-4.91583
을	-5.10372
?	-5.19218
에	-5.22371
은	-5.35906
▁너무	-5.41893
고	-5.44169
다	-5.45758
!	-5.47264
▁정말	-5.54402
지	-5.59759
를	-5.60412
▁이	-5.65891
만	-5.73982
▁진짜	-5.74669
~	-5.83886
한	-5.87298
로	-5.87525
나	-6.00059
게	-6.03923
과	-6.07785
영화	-6.08442
점	-6.15265
으로	-6.26087
▁잘	-6.26878
▁왜	-6.28659
▁더	-6.29112
▁1	-6.29709
!!	-6.29981
▁그	-6.30874
▁다	-6.34626
▁이런	-6.35459
하고	-6.36476
▁수	-6.39801
와	-6.4167
▁그냥	-6.42392
에서	-6.42875
....	-6.45292
기	-6.47278
인	-6.47709
▁안	-6.48178
라	-6.50697
▁아	-6.53231
네	-6.57319
▁10	-6.59179
▁보고	-6.60867
서	-6.61525
요	-6.62732
하는	-6.63905
▁영화를	-6.6481
▁본	-6.65235
▁드라마	-6.65595
▁평점	-6.67093
어	-6.68875
▁좀	-6.69252
아	-6.70615
들	-6.72176
▁연기	-6.7294
해	-6.74176
리	-6.77577
▁내	-6.79857
거	-6.80218
▁봤는데	-6.81458
▁한	-6.83247
▁영화는	-6.83978
▁ᄏᄏ	-6.85114
▁영화가	-6.85248
▁참	-6.86044
자	-6.86143
▁없는	-6.86279
▁이거	-6.86634
▁최고의	-6.87008
▁내가	-6.87261
면	-6.89654
▁완전	-6.90256
▁쓰레기	-6.90639
▁없다	-6.92356
야	-6.92713
▁이건	-6.93874
네요	-6.96065
이다	-6.96994
▁스토리	-6.97309
▁최고	-6.98404
▁있는	-6.98537
▁좋은	-6.98618
!!!	-7.00324
ᄏᄏ	-7.00614
지만	-7.0095
▁2	-7.01421
▁이렇게	-7.02371
대	-7.03901
수	-7.03993
보다	-7.04397
니	-7.04794
▁이게	-7.05364
▁다시	-7.0559
▁보는	-7.05952
▁3	-7.07488
까지	-7.09891
일	-7.11138
해서	-7.11401
▁것	-7.12945
^^	-7.14232
▁못	-7.14291
▁평점이	-7.14995
▁많이	-7.15725
시	-7.15985
▁난	-7.16664
임	-7.17159
ᄏ	-7.17774
함	-7.19267
랑	-7.19982
하게	-7.20459
스	-7.20573
들이	-7.21126
음	-7.21254
진	-7.21362
사	-7.21902
▁역시	-7.22053
데	-7.22275
건	-7.23129
~~	-7.23305
듯	-7.23389
▁그리고	-7.24232
할	-7.24824
안	-7.27975
구	-7.28263
여	-7.28572
▁하는	-7.3065
▁개	-7.31061
▁작품	-7.31209
??	-7.31459
▁재밌게	-7.31768
▁넘	-7.32124
냐	-7.32651
▁뭐	-7.33175
▁또	-7.33513
하다	-7.33583
;;	-7.34184
는데	-7.34361
인데	-7.34718
'	-7.36307
주	-7.36924
▁없고	-7.37572
▁마지막	-7.37734
하	-7.3782
▁아깝다	-7.38636
▁재미	-7.38759
보고	-7.38788
우	-7.39511
▁볼	-7.40031
년	-7.40665
1	-7.40911
▁나	-7.4112
▁꼭	-7.41416
던	-7.41424
▁ᄏᄏᄏ	-7.42139
진짜	-7.42986
▁무슨	-7.44331
중	-7.44334
▁별로	-7.45612
2	-7.46006
▁보면	-7.46071
미	-7.46253
적	-7.47447
▁가장	-7.4756
)	-7.47688
ᅲᅲ	-7.47706
▁감독	-7.48559
정	-7.48564
▁감동	-7.51022
▁만든	-7.52975
▁전	-7.53208
▁지금	-7.5342
같은	-7.53923
▁중	-7.54158
치	-7.54386
▁별	-7.54798
▁하나	-7.55331
전	-7.55376
ᄏᄏᄏ	-7.56098
라고	-7.56745
신	-7.56781
개	-7.57688
오	-7.5801
▁ᅲᅲ	-7.5826
▁말	-7.58616
▁ᄏ	-7.58793
용	-7.59403
▁이야기	-7.59886
;	-7.60057
▁다른	-7.6039
성	-7.611
▁영화다	-7.61332
드	-7.61443
좀	-7.62223
것	-7.62474
너무	-7.62513
분	-7.62651
▁같은	-7.63086
질	-7.63431
▁할	-7.63928
입니다	-7.64086
▁끝까지	-7.6422
상	-7.64569
마	-7.64842
▁'	-7.64895
하지	-7.65061
급	-7.65071
ᅲ	-7.65434
라는	-7.65463
▁저	-7.66088
▁ᅳᅳ	-7.66172
그	-7.66814
정말	-7.66935
▁명작	-7.67136
세	-7.67157
▁액션	-7.67485
▁말이	-7.68418
장	-7.68498
된	-7.68542
부터	-7.68576
비	-7.69397
보	-7.69697
씨	-7.69716
내	-7.69825
▁와	-7.70927
▁하지만	-7.711
부	-7.71501
▁솔직히	-7.71539
▁시간	-7.71635
▁느낌	-7.7182
이나	-7.72476
처럼	-7.73404
했다	-7.73571
▁좋다	-7.73631
▁지	-7.73973
▁대한	-7.74569
▁연출	-7.7461
▁오	-7.74786
▁있다	-7.751
▁같다	-7.75381
화	-7.75454
▁전혀	-7.75667
란	-7.75667
▁내용	-7.76166
(	-7.76777
▁하	-7.77395
▁처음	-7.77557
▁뭔가	-7.77864
▁봤다	-7.78055
▁생각	-7.7875
▁한국	-7.79202
▁봐도	-7.79371
ᅳᅳ	-7.79485
3	-7.79981
트	-7.80248
적인	-7.80272
▁아주	-7.80405
없는	-7.80694
소	-7.80756
▁많은	-7.81379
▁배우	-7.81722
인지	-7.81779
▁ᄒᄒ	-7.82229
더	-7.82767
원	-7.82784
말	-7.83353
▁때	-7.83408
에게	-7.83576
때문에	-7.83745
▁굿	-7.84072
▁사랑	-7.8419
▁재밌다	-7.84803
인가	-7.84864
편	-7.84889
,,	-7.85084
▁계속	-7.85912
때	-7.86062
▁내내	-7.86213
군	-7.86241
▁내용이	-7.87069
드라마	-7.87318
▁짱	-7.87405
있는	-7.87594
한다	-7.87642
▁모두	-7.87749
▁재미있게	-7.87813
걸	-7.879
▁어떻게	-7.88724
▁않고	-7.88862
▁이걸	-7.89183
물	-7.90244
▁하고	-7.91092
▁그래도	-7.91154
▁최악의	-7.91308
습니다	-7.9161
▁두	-7.91704
▁나오는	-7.91889
▁4	-7.92129
▁최악	-7.92401
▁아니라	-7.92566
▁재미없다	-7.92626
▁주	-7.92822
선	-7.92997
▁아니	-7.93543
영	-7.93677
-	-7.94206
무	-7.94455
두	-7.94493
이랑	-7.94749
▁아니다	-7.9511
▁듯	-7.95161
▁대박	-7.95639
▁줄	-7.95725
본	-7.9573
긴	-7.95783
히	-7.95817
▁아닌	-7.95897
▁코미디	-7.95906
▁일	-7.96006
▁기대	-7.96066
▁연기가	-7.96773
▁일본	-7.97016
러	-7.97472
▁배우들	-7.97702
▁돈	-7.97716
▁한번	-7.9793
려	-7.9805
하지만	-7.98076
조	-7.98586
▁딱	-7.9869
▁5	-7.99283
▁주인공	-7.99646
▁여자	-7.99755
▁아름다운	-7.99837
▁거	-8.00045
▁보	-8.00078
어요	-8.00693
점도	-8.00703
▁모든	-8.0074
동	-8.00742
▁제일	-8.01403
▁사	-8.01522
▁그런	-8.01593
▁7	-8.01761
▁연기도	-8.01813
▁근데	-8.01947
▁감독이	-8.01954
단	-8.02516
▁보기	-8.03091
류	-8.03247
하면	-8.03405
▁나는	-8.03476
들의	-8.03902
▁않은	-8.0413
유	-8.04339
당	-8.05284
▁보다가	-8.05662
이라	-8.05694
▁만드는	-8.05973
했던	-8.06213
▁대	-8.06261
▁아니고	-8.06631
▁제	-8.06689
▁알	-8.06782
잘	-8.0679
▁않는	-8.07017
엔	-8.07143
식	-8.07465
면서	-8.07476
제	-8.07596
줄	-8.0787
▁이영화	-8.07966
▁비	-8.08144
ᄒᄒ	-8.082
▁8	-8.08719
▁내용도	-8.08847
▁제대로	-8.08993
이라는	-8.0911
며	-8.09331
감	-8.09526
~~~	-8.0961
연	-8.09664
▁이제	-8.0967
▁요즘	-8.10028
▁사람	-8.10058
▁0	-8.10073
합니다	-8.10195
없이	-8.10499
▁해	-8.10554
▁스토리가	-8.10745
호	-8.10853
▁스릴러	-8.11308
죠	-8.11501
▁영화의	-8.11784
▁시간이	-8.11804
구나	-8.11823
▁영화라고	-8.12339
▁때문에	-8.12419
남	-8.12863
▁보다	-8.12883
▁싶다	-8.13125
▁OO	-8.13231
▁나름	-8.14246
년대	-8.14648
▁차라리	-8.14843
린	-8.14964
모	-8.15009
명	-8.15201
연기	-8.15371
▁자	-8.1539
▁우리	-8.15591
한테	-8.15672
▁아직도	-8.15702
바	-8.15819
길	-8.16405
▁엄청	-8.16912
봤는데	-8.1699
▁수준	-8.17151
▁후	-8.17201
▁진심	-8.17228
▁인생	-8.17401
난	-8.1761
▁특히	-8.17752
▁되는	-8.17869
▁재밌어요	-8.18038
▁정	-8.18201
살	-8.18285
들은	-8.18375
▁재미도	-8.18589
▁절대	-8.18937
▁보면서	-8.19
노	-8.19033
▁무	-8.19072
▁영화입니다	-8.19513
▁스토리도	-8.19842
▁김	-8.19847
▁좋았다	-8.19911
▁좋고	-8.20414
짱	-8.20536
!!!!	-8.20671
▁아까운	-8.20676
타	-8.20721
위	-8.20722
▁여운이	-8.20752
▁반	-8.20831
▁도대체	-8.20836
이란	-8.20838
되는	-8.20846
▁감독의	-8.21161
하나	-8.2119
▁장면	-8.21643
""	-8.21712
방	-8.22035
▁미	-8.22668
시간	-8.22793
▁남자	-8.22922
작	-8.23157
▁조	-8.23199
번	-8.23343
ᄒ	-8.23463
보면	-8.23786
▁걍	-8.23869
심	-8.23886
디	-8.23887
▁시	-8.24199
점은	-8.24293
▁뻔한	-8.24487
▁나도	-8.24487
▁영화에	-8.24771
▁기	-8.25042
▁좋아	-8.25052
▁좋아하는	-8.25137
▁주는	-8.25184
▁오랜만에	-8.25485
울	-8.2553
▁마지막에	-8.25696
ᅳ	-8.26037
▁유	-8.26121
▁추천	-8.26245
▁없음	-8.26269
▁봤습니다	-8.26391
▁실망	-8.26684
▁조금	-8.267
이고	-8.26863
이라고	-8.27083
▁소	-8.27257
재	-8.27353
▁전개	-8.27544
▁신	-8.27675
▁이해	-8.27756
희	-8.28117
님	-8.28165
▁ᄏᄏᄏᄏ	-8.28369
후	-8.28376
10	-8.28572
준	-8.28612
♥	-8.28817
인듯	-8.28832
하네요	-8.28887
▁반전	-8.29231
까	-8.29504
▁남는	-8.29509
민	-8.29658
▁어떤	-8.29684
▁이해가	-8.30307
날	-8.30437
▁배우들의	-8.30494
▁지루하고	-8.30549
왜	-8.30768
▁봤던	-8.30906
▁이상	-8.31183
▁생각이	-8.31275
▁멋진	-8.31597
없다	-8.31629
▁최고다	-8.31736
▁눈물	-8.32029
▁^^	-8.3204
▁지루한	-8.32161
래	-8.32215
▁OOO	-8.32391
점이	-8.32479
▁결말	-8.32737
▁막장	-8.32818
▁함께	-8.33019
차	-8.33041
ᅮᅮ	-8.33168
▁개봉	-8.3333
▁ᅲ	-8.33485
???	-8.33766
라도	-8.34069
▁뭘	-8.34146
하네	-8.34172
▁없이	-8.344
했는데	-8.34557
운	-8.34568
▁보는내내	-8.34954
▁나온	-8.35404
▁싶은	-8.35517
저	-8.35739
▁B	-8.35819
▁20	-8.36154
▁오늘	-8.36211
▁건	-8.36237
들을	-8.36237
▁공포	-8.36258
▁사람이	-8.36268
▁애니	-8.36312
니까	-8.36444
었다	-8.36553
르	-8.36605
▁9	-8.36966
▁재미가	-8.37028
▁영화로	-8.37256
다니	-8.37332
▁못한	-8.37377
▁어	-8.37505
박	-8.37526
적으로	-8.37795
간	-8.37814
발	-8.37822
,,,	-8.3821
ᄏᄏᄏᄏ	-8.38335
▁"	-8.38553
으	-8.38576
그냥	-8.3881
▁애니메이션	-8.38839
▁그렇게	-8.38925
▁6	-8.38944
▁만들어	-8.39022
▁큰	-8.39032
으면	-8.39043
/	-8.39065
보는	-8.39221
▁공포영화	-8.39226
▁그저	-8.39452
▁얼마나	-8.39458
▁된	-8.39754
애	-8.39903
▁보세요	-8.39935
지는	-8.40617
▁재밌는	-8.40647
▁아무리	-8.4077
루	-8.40931
▁음악	-8.41001
▁괜찮은	-8.41441
▁졸작	-8.41589
레	-8.42025
▁개인적으로	-8.42102
못	-8.42196
▁막	-8.42308
프	-8.42479
▁정도	-8.42522
▁연기는	-8.42541
▁마	-8.42645
크	-8.43282
회	-8.43326
파	-8.43356
카	-8.43667
해도	-8.43774
▁시리즈	-8.43783
▁수작	-8.43785
▁제발	-8.43811
는게	-8.43861
▁기억에	-8.43971
지도	-8.44006
생	-8.44304
▁부	-8.44389
~!	-8.44406
판	-8.4448
피	-8.44878
산	-8.44889
5	-8.44951
▁걸	-8.44985
생각	-8.45064
▁구	-8.4519
▁모	-8.45334
▁안되는	-8.45617
▁지루하다	-8.45755
▁연기력	-8.45996
건지	-8.4632
▁될	-8.46412
▁뭔	-8.46467
▁것이	-8.46492
▁""	-8.46581
▁모르겠다	-8.46612
▁가슴	-8.46801
▁좋아요	-8.47059
▁극장에서	-8.47433
▁우리나라	-8.4763
배우	-8.47646
▁애	-8.47777
져	-8.47835
▁쓰	-8.47836
▁알바	-8.48056
▁남	-8.48095
▁같이	-8.48131
현	-8.4822
관	-8.48361
스토리	-8.48679
▁몇	-8.49046
▁결국	-8.49387
▁영	-8.49558
▁있고	-8.50469
▁매우	-8.50743
▁대사	-8.50747
▁하나도	-8.51446
▁속	-8.51563
▁기억	-8.51696
▁노	-8.51972
밖에	-8.52004
다가	-8.52044
4	-8.52045
더라	-8.52146
키	-8.52214
중에	-8.52223
만큼	-8.52263
;;;	-8.52304
워	-8.52392
▁시작	-8.52398
▁되	-8.52417
▁봤어요	-8.52441
▁원작	-8.53107
코	-8.53234
반	-8.53268
▁않는다	-8.53305
▁마음이	-8.53782
▁기분	-8.5379
평점	-8.53984
터	-8.54134
▁준	-8.54137
즈	-8.5432
▁캐릭터	-8.54352
공	-8.54493
▁공감	-8.54525
버	-8.54666
감독	-8.54732
▁눈	-8.54754
최고	-8.54844
▁사람들	-8.54968
▁피	-8.55014
▁한다	-8.55064
▁시나리오	-8.55068
▁긴장감	-8.55093
▁눈물이	-8.55141
따	-8.55177
▁위한	-8.55272
▁재밌음	-8.55288
▁게	-8.55305
▁보게	-8.55507
▁너무나	-8.55513
배	-8.55527
든	-8.55543
▁ᄒ	-8.55573
▁원	-8.55738
▁위해	-8.55802
하면서	-8.55953
사람	-8.56044
▁표현	-8.5608
이런	-8.56679
였다	-8.56801
태	-8.56802
▁스	-8.56938
▁미국	-8.5694
▁강추	-8.56949
참	-8.56952
속	-8.57119
정도	-8.57263
하며	-8.5799
는거	-8.58216
▁인간	-8.58294
하기	-8.58487
겨	-8.58525
▁훨씬	-8.58988
▁알고	-8.59159
▁느낌이	-8.59197
경	-8.59302
되	-8.59311
이지만	-8.59349
등	-8.5938
그리고	-8.59898
▁만들	-8.59935
▁갈수록	-8.59961
▁보지	-8.60026
형	-8.60314
▁날	-8.60535
문	-8.60594
▁존나	-8.60717
▁대체	-8.60962
티	-8.60992
병	-8.61088
▁영화네요	-8.61126
▁바	-8.61257
▁그나마	-8.61362
▁우	-8.61411
▁않다	-8.61429
▁세	-8.61434
▁밖에	-8.61885
있다	-8.61938
넘	-8.61946
점을	-8.61987
실	-8.62029
이야	-8.62248
▁ᅮᅮ	-8.6247
▁내용은	-8.62574
거야	-8.62601
겠다	-8.62815
해요	-8.62832
국	-8.62921
▁기억이	-8.62962
▁억지	-8.63469
봄	-8.63604
ᅮ	-8.63657
▁가슴이	-8.63672
▁강	-8.63899
▁영상	-8.64032
▁한국영화	-8.64093
▁보여주는	-8.64157
▁박	-8.64307
림	-8.64316
는지	-8.64609
▁재미없음	-8.64693
금	-8.64732
▁결말이	-8.64809
했음	-8.64819
▁문제	-8.64974
▁그래서	-8.65409
역	-8.65464
▁꽤	-8.65896
토	-8.65909
8	-8.65951
▁지루함	-8.66031
매	-8.66215
+	-8.66414
▁누가	-8.66448
▁연기를	-8.66449
▁없었다	-8.6657
▁매력	-8.66786
것도	-8.66928
▁로맨스	-8.67044
▁어설픈	-8.67055
▁음	-8.67225
작품	-8.6727
▁쓰레기영화	-8.67348
하는데	-8.67511
▁걸작	-8.67841
▁불	-8.68323
▁끝	-8.68822
망	-8.69142
▁재밌고	-8.69168
▁소재	-8.6918
▁장	-8.6923
▁것을	-8.69331
불	-8.69353
이네	-8.69438
완전	-8.69787
▁미친	-8.70145
점대	-8.70164
▁대해	-8.70194
▁그만	-8.7055
▁배	-8.70602
▁바로	-8.70873
▁영화중	-8.70887
▁필요	-8.70961
▁재밌	-8.71093
▁CG	-8.71141
▁없어	-8.7139
감동	-8.71433
▁시즌	-8.7161
뿐	-8.71616
▁애들	-8.71644
▁가족	-8.71644
사랑	-8.71729
▁당시	-8.71992
▁감동도	-8.72036
초	-8.72145
▁자기	-8.72299
김	-8.72361
▁영화였다	-8.7239
▁사람들이	-8.72491
군요	-8.73018
▁발	-8.73018
▁영화관에서	-8.73081
▁잔잔한	-8.73124
▁않	-8.73221
려고	-8.73378
▁단	-8.73526
이네요	-8.73655
▁다들	-8.73664
▁현실	-8.73686
▁같아요	-8.73753
▁찾아	-8.73804
강	-8.73915
어서	-8.74002
▁코믹	-8.74179
구만	-8.74298
▁더빙	-8.74405
▁생각보다	-8.74442
▁노래	-8.74505
▁주고	-8.74644
▁것도	-8.74829
▁몰입도	-8.75006
▁감동적인	-8.75351
▁간만에	-8.75365
종	-8.75399
▁상당히	-8.75502
▁감동이	-8.75603
▁사실	-8.75773
▁초	-8.75952
▁아쉽다	-8.76241
담	-8.76316
▁욕	-8.76424
▁30	-8.76442
▁볼만한	-8.76482
▁캐스팅	-8.76487
봤다	-8.76607
▁입	-8.76827
▁-	-8.76899
주는	-8.76954
▁노잼	-8.77233
이거	-8.77397
던데	-8.77424
인줄	-8.77787
▁발연기	-8.7792
▁아님	-8.77986
▁생각을	-8.78041
▁스토리는	-8.78375
▁제목	-8.78391
론	-8.78407
쳐	-8.78466
꺼	-8.78648
▁작가	-8.78668
▁재미있다	-8.78908
▁중간에	-8.78937
▁별점	-8.79141
▁머	-8.79182
▁파	-8.7946
달	-8.79555
▁재미있는	-8.79564
알	-8.79685
▁상	-8.79793
이건	-8.79799
▁주연	-8.79846
▁야	-8.79869
▁뭐야	-8.8005
s	-8.80104
▁좋은데	-8.80116
▁그대로	-8.80188
내용	-8.80233
▁차	-8.80581
▁점수	-8.80661
녀	-8.80661
▁진정한	-8.80844
▁진	-8.8087
입	-8.80882
통	-8.81029
탄	-8.81167
▁거의	-8.81292
편이	-8.81417
▁맘에	-8.81599
▁성	-8.81692
"	-8.81761
▁준다	-8.81766
체	-8.81823
장면	-8.81828
▁마음에	-8.81849
영화는	-8.82026
▁했는데	-8.82028
▁중국	-8.82111
느낌	-8.8225
▁등	-8.82322
된다	-8.82376
▁굉장히	-8.82475
년이	-8.82553
▁재	-8.82582
창	-8.82829
9	-8.82832
▁후회	-8.82842
▁정도로	-8.83048
▁살	-8.83065
▁같은데	-8.83113
▁재미있어요	-8.8314
▁감동을	-8.83178
라면	-8.83305
▁있지만	-8.83358
▁보니	-8.83558
▁다큐	-8.83594
6	-8.83605
대로	-8.83914
▁저런	-8.83916
악	-8.8412
▁이영화를	-8.84137
쓰레기	-8.84434
▁뭐지	-8.84484
포	-8.84495
▁울	-8.84554
▁전쟁	-8.84719
▁나와서	-8.84809
양	-8.84865
▁재미는	-8.85012
▁약간	-8.85019
▁네이버	-8.8514
기도	-8.85142
▁뿐	-8.85273
뭐	-8.85282
▁재밌네요	-8.85337
기는	-8.85386
극	-8.85415
o	-8.85527
▁설정	-8.85572
이었다	-8.85587
▁봤지만	-8.85695
▁제가	-8.85723
▁배우들이	-8.8582
될	-8.85889
이지	-8.86491
머	-8.86493
▁있을	-8.86534
▁동	-8.86789
▁만화	-8.86864
▁영화도	-8.87031
또	-8.87445
▁선	-8.87475
에도	-8.87572
갈	-8.87624
했지만	-8.87702
▁했다	-8.87804
▁있을까	-8.8785
▁손	-8.8791
보단	-8.88153
▁있	-8.88349
▁예	-8.88444
여자	-8.88653
이라도	-8.88707
없음	-8.88718
계	-8.88727
▁봐서	-8.88744
▁서	-8.88929
▁평점을	-8.89015
▁없	-8.89067
집	-8.89141
▁영화임	-8.89187
너	-8.89437
예	-8.89595
▁생각하게	-8.89723
▁판타지	-8.8986
▁장면이	-8.89876
▁방송	-8.89906
▁너	-8.8995
▁뭐냐	-8.9002
▁적	-8.90028
▁나의	-8.90077
▁마음	-8.90104
편은	-8.90123
OO	-8.90136
봐	-8.9022
▁훌륭한	-8.90227
승	-8.90507
▁아직	-8.9062
글	-8.90634
▁봐야	-8.90763
e	-8.90789
▁물	-8.91201
▁들	-8.91217
▁대단한	-8.91281
▁여	-8.91321
▁갑자기	-8.91353
온	-8.91384
▁있어서	-8.91523
▁모습	-8.91567
▁영화인데	-8.9159
▁매	-8.91601
▁혼자	-8.91743
재미	-8.91857
▁재미없는	-8.92041
▁항상	-8.92257
쓰	-8.92312
▁심	-8.92482
거나	-8.92545
영화가	-8.92976
해야	-8.93152
▁TV	-8.93214
▁만	-8.93312
남자	-8.93343
▁어디서	-8.93379
▁허	-8.93429
▁90	-8.93672
▁새로운	-8.93715
색	-8.94038
▁평	-8.94085
건가	-8.94146
▁어느	-8.94333
▁원작을	-8.94384
▁치	-8.94396
구요	-8.94526
액션	-8.94606
됨	-8.94882
먹	-8.94936
▁줄거리	-8.94953
7	-8.9496
있고	-8.95034
봐도	-8.95301
~!!	-8.95335
▁엔딩	-8.95369
▁구성	-8.9553
▁전부	-8.95531
▁해서	-8.95601
근데	-8.9561
▁하지	-8.95635
▁자체가	-8.95679
볼	-8.95803
릴	-8.95892
▁그런지	-8.95928
▁봐라	-8.95949
땜에	-8.96133
테	-8.9619
▁공	-8.96231
▁처음부터	-8.96273
▁친구	-8.96311
D	-8.96361
▁하다	-8.96446
▁ᅳ	-8.96448
▁충분히	-8.96583
▁꿀잼	-8.96622
▁봄	-8.96675
▁주인공이	-8.96728
d	-8.96845
▁이딴	-8.96856
▁봤음	-8.96939
▁말도	-8.9704
▁평가	-8.97327
다고	-8.97407
었는데	-8.97578
다는	-8.97633
▁죽	-8.9813
▁빨리	-8.98269
스러운	-8.98354
▁장난	-8.98475
▁카	-8.98505
▁그러나	-8.98552
▁사람은	-8.98599
▁있는데	-8.98694
이야기	-8.98722
▁저는	-8.98736
▁못하는	-8.98825
아니	-8.98908
▁tv	-8.9892
수준	-8.99027
진다	-8.99219
▁가지고	-8.99293
ᄋ	-8.99342
들에게	-8.99344
나요	-8.99368
▁얘기	-8.99395
▁좋	-8.99531
▁비해	-8.99536
돈	-8.99565
움	-8.99577
짐	-8.99723
했	-8.99727
▁점점	-8.99767
▁없어서	-8.99794
▁자체	-8.99821
나는	-8.99953
▁일단	-9.00147
잡	-9.00165
기에	-9.00222
않	-9.00336
잼	-9.00433
영화를	-9.00588
▁얼굴	-9.00593
년전	-9.0073
▁열	-9.00822
▁뭐가	-9.00889
듯한	-9.01073
거지	-9.01114
내가	-9.01116
▁good	-9.0124
▁화	-9.01253
보니	-9.01322
보기	-9.0162
▁딸	-9.0164
▁번	-9.0169
▁아무	-9.01713
없고	-9.01761
능	-9.01983
▁잼	-9.02079
할때	-9.02088
천	-9.02158
▁스릴	-9.02404
▁좋네요	-9.02552
라서	-9.02659
♡	-9.02674
▁아까움	-9.02685
▁여주인공	-9.02834
t	-9.0286
▁정신	-9.031
▁너무너무	-9.03139
▁높은	-9.03175
죽	-9.03187
▁간	-9.0341
▁삼류	-9.03505
▁더욱	-9.03731
▁잘못	-9.03763
▁좋겠다	-9.04075
▁총	-9.04238
▁슬픈	-9.04246
채	-9.04316
▁엄청난	-9.04328
있	-9.04389
>	-9.04449
▁들어	-9.04463
▁따뜻한	-9.04619
▁각본	-9.04666
것이	-9.04993
▁ᄍᄍ	-9.05002
▁똥	-9.05161
▁한마디로	-9.05323
▁100	-9.05541
▁어릴때	-9.0561
▁사람들은	-9.05644
만한	-9.05686
▁허접	-9.05769
같이	-9.05772
▁유치	-9.05798
치고	-9.05801
▁옛날	-9.05846
▁없네	-9.05949
씬	-9.06197
▁아이들	-9.06354
▁첫	-9.06354
▁좋은영화	-9.06455
소리	-9.06523
▁것은	-9.0654
▁그닥	-9.06804
▁합니다	-9.06991
▁(	-9.07129
▁있어	-9.07204
기만	-9.07214
▁다시봐도	-9.07263
더니	-9.07281
▁이영화는	-9.07295
▁망작	-9.07445
▁힘	-9.07461
증	-9.07486
▁안된다	-9.07537
▁짜증	-9.07541
▁언제	-9.07594
▁극장판	-9.07603
▁된다	-9.07659
▁책	-9.0769
겠지	-9.07754
▁낫다	-9.07763
▁원래	-9.07791
▁헐	-9.08004
▁출연	-9.08067
을까	-9.08104
목	-9.08148
난다	-9.08202
길래	-9.08268
▁재밌는데	-9.08318
▁보는데	-9.08597
▁여기	-9.0865
▁비디오	-9.08705
이상	-9.08804
▁인	-9.09185
▁목소리	-9.09216
나오는	-9.09251
▁사랑을	-9.09444
▁재밌었다	-9.09446
업	-9.0946
▁토	-9.09497
석	-9.09499
▁존	-9.09574
▁따라	-9.09577
이게	-9.09644
평	-9.09701
▁전개가	-9.09716
▁그리	-9.09752
▁분위기	-9.09757
▁순간	-9.09872
▁재미없어	-9.09907
▁분	-9.09977
좋아	-9.09993
▁이것도	-9.09995
▁자꾸	-9.10141
▁가는	-9.10219
▁극	-9.10256
▁지루	-9.10271
▁감독은	-9.10316
▁길	-9.10329
에선	-9.10392
거다	-9.10485
슨	-9.10541
▁약	-9.1057
빠	-9.10592
에는	-9.10734
▁모르는	-9.10777
▁완벽한	-9.10822
것같다	-9.1086
이라니	-9.10967
▁흥행	-9.10975
▁모르고	-9.1107
▁방	-9.11125
▁백	-9.11199
▁돈주고	-9.1131
세요	-9.11454
▁무조건	-9.11498
▁이런영화	-9.11667
▁유치한	-9.1191
년도	-9.11967
▁도저히	-9.12101
별	-9.1219
▁80	-9.12205
다시	-9.12367
▁감정	-9.12429
▁화면	-9.12433
백	-9.12433
▁인간의	-9.12526
▁불륜	-9.12552
맨	-9.12571
▁예전에	-9.12585
▁포스터	-9.12606
▁이상한	-9.12638
학	-9.12738
을때	-9.12852
기를	-9.12916
▁우연히	-9.12978
▁더럽게	-9.13164
▁세계	-9.13186
복	-9.1326
보다는	-9.13286
▁감	-9.13626
왕	-9.13659
▁나올	-9.13774
▁뒤	-9.13896
▁예술	-9.13923
▁초반	-9.13991
▁여배우	-9.14141
▁평점은	-9.14148
▁있음	-9.14247
▁해도	-9.14288
좋	-9.14378
▁그때	-9.14382
▁있었다	-9.14384
▁그게	-9.14395
건데	-9.14484
▁좋음	-9.14592
▁성룡	-9.14659
▁멜로	-9.14726
는건	-9.14754
해라	-9.14757
▁좋았어요	-9.14819
▁개연성	-9.14837
막	-9.14852
교	-9.14977
▁여주	-9.15028
라니	-9.15065
년에	-9.15091
대박	-9.15137
▁코	-9.1527
▁감독님	-9.15287
슴	-9.15427
많이	-9.15632
_	-9.15691
▁억지로	-9.1572
0	-9.15747
▁아쉬운	-9.15804
추	-9.1596
▁지루해	-9.16133
마지막	-9.16141
▁믿고	-9.16162
이라면	-9.16223
▁오래	-9.16239
▁오히려	-9.16305
▁행복	-9.16505
그래도	-9.16603
좋은	-9.16806
^	-9.16872
▁아닌가	-9.16916
투	-9.16936
조차	-9.16962
별로	-9.16993
▁느낄	-9.17013
▁부족한	-9.17138
▁실	-9.17172
▁봤네요	-9.17198
▁비슷한	-9.17262
▁시절	-9.17271
▁수가	-9.17274
▁없네요	-9.17347
▁것이다	-9.17522
절	-9.17601
열	-9.17625
▁알았다	-9.17681
▁전형적인	-9.17753
▁편	-9.1786
표	-9.17867
▁쳐	-9.17932
▁재밌어	-9.17972
니다	-9.18015
잖아	-9.18066
기대	-9.18126
▁굳	-9.18126
주의	-9.18146
허	-9.1817
▁추억	-9.18182
▁소리	-9.18231
▁엄마	-9.1838
▁만족	-9.18459
법	-9.18632
리는	-9.18642
▁액션도	-9.18701
▁개그	-9.18844
▁SF	-9.1886
향	-9.18928
▁나오	-9.18955
친	-9.19036
스트	-9.19054
▁이야기를	-9.19066
▁평점에	-9.19068
연출	-9.19135
▁뭔지	-9.19371
▁병맛	-9.19544
▁....	-9.19668
이냐	-9.19713
▁아무것도	-9.2004
순	-9.20043
▁모습이	-9.20264
▁봤	-9.20385
되고	-9.20415
었던	-9.20462
▁프랑스	-9.20469
u	-9.20498
락	-9.20501
▁선택	-9.20541
▁소설	-9.20576
▁배우가	-9.20697
▁배경	-9.20732
▁이런거	-9.20877
눈	-9.20922
케	-9.20931
▁연출이	-9.20936
거냐	-9.20948
▁힘든	-9.20956
들도	-9.20989
▁외	-9.21039
수가	-9.21102
놈	-9.21195
▁알게	-9.2122
봐서	-9.21373
행	-9.21439
▁잠	-9.2155
▁반전이	-9.21599
출	-9.21678
▁코메디	-9.21734
▁낮은	-9.22028
▁지금까지	-9.22053
▁맞	-9.22068
각	-9.22103
b	-9.22291
▁맞는	-9.22299
:	-9.22304
▁글	-9.22571
으니	-9.22621
▁돈이	-9.2278
력	-9.22866
▁화이팅	-9.22906
했습니다	-9.23078
▁제작	-9.2314
▁처음으로	-9.23154
권	-9.23196
▁어렸을때	-9.23311
▁듯한	-9.23316
▁편집	-9.23368
▁댓글	-9.23375
▁물론	-9.23393
▁대한민국	-9.23414
설	-9.23423
것이다	-9.2354
▁연	-9.23626
▁기대하고	-9.2364
배우들	-9.23643
y	-9.23725
▁알았는데	-9.23749
▁액션영화	-9.23768
▁순	-9.23776
▁나라	-9.23786
▁재미있고	-9.23866
▁요	-9.23937
짓	-9.23991
하냐	-9.2409
▁영상미	-9.24172
언	-9.24216
침	-9.2426
▁어린	-9.24354
▁존재	-9.24419
퍼	-9.24523
▁ost	-9.24698
▁올	-9.24768
▁느끼게	-9.24827
약	-9.2486
~~~~	-9.2488
▁앞으로	-9.24917
시리즈	-9.24956
었	-9.25
했어요	-9.25012
격	-9.25021
................	-9.25021
▁악	-9.25035
▁저도	-9.2516
▁최	-9.25195
커	-9.25229
처음	-9.2526
▁쓴	-9.25281
▁이미	-9.25284
▁재미없고	-9.25351
▁화려한	-9.25428
▁대단하다	-9.25447
했고	-9.25496
▁머리	-9.25506
짜	-9.25525
놓고	-9.25546
욕	-9.25582
▁좋았습니다	-9.25649
▁과거	-9.2576
올	-9.25883
▁호	-9.25969
▁돌	-9.26014
▁참고	-9.26047
▁않을	-9.261
▁이름	-9.26173
▁깊은	-9.26192
▁괜히	-9.26253
▁하면	-9.26332
▁갈	-9.26375
뻔	-9.26576
▁아이들이	-9.26599
▁장면은	-9.26674
▁흠	-9.26957
▁유치하고	-9.26988
▁특유의	-9.27043
▁왕	-9.27097
▁사회	-9.27228
새	-9.27449
도록	-9.27473
a	-9.27588
▁영화였습니다	-9.27603
▁포	-9.2769
훈	-9.27723
▁영화보다	-9.27725
▁실제	-9.27772
할수	-9.27775
▁의미	-9.27781
▁예상	-9.27931
▁말고	-9.2801
▁재밋	-9.28057
점준다	-9.28089
▁만들지	-9.28249
가서	-9.28265
범	-9.28293
근	-9.28358
▁볼만	-9.28424
▁지금도	-9.28484
사람들	-9.28512
보는데	-9.28618
메	-9.28631
▁졸	-9.2864
받	-9.28651
보다가	-9.287
▁왜이리	-9.28793
정도로	-9.28802
▁현재	-9.28812
▁시청률	-9.28823
▁보고나서	-9.28869
▁저질	-9.28904
▁살아	-9.2896
▁별루	-9.28966
▁같네요	-9.29027
▁인정	-9.29065
▁ᄒᄒᄒ	-9.29153
같다	-9.29202
▁좋았고	-9.29217
▁사랑이	-9.29279
▁스토리에	-9.29293
▁망	-9.29306
▁타	-9.29312
▁노출	-9.29316
▁명	-9.2935
▁리	-9.29355
슬	-9.29425
점짜리	-9.29528
▁영화에서	-9.2956
영화다	-9.29592
▁중에	-9.29638
▁역사	-9.29704
▁최악이다	-9.29731
환	-9.29777
▁어디	-9.29797
삼	-9.29797
한거	-9.29842
월	-9.29863
▁부족	-9.29866
베	-9.29898
▁삶	-9.29942
지금	-9.2995
▁이리	-9.30024
름	-9.30049
▁명작이다	-9.30055
▁이런걸	-9.30058
▁재미없	-9.30076
▁보여준	-9.30215
▁진부한	-9.30233
▁무엇보다	-9.30251
▁나온다	-9.30254
▁영화라	-9.30347
▁전체적으로	-9.30349
▁두번	-9.30369
나라	-9.30541
▁실화	-9.30551
마다	-9.30764
▁그렇고	-9.30776
▁맛	-9.30833
▁재밌었어요	-9.30916
되어	-9.30921
이면	-9.31025
▁결혼	-9.31026
쉬	-9.31083
▁본다	-9.31235
▁아니지만	-9.31319
▁시간낭비	-9.31405
▁먼저	-9.31472
▁지루하지	-9.31685
▁너무나도	-9.31743
▁변	-9.31756
명작	-9.31838
▁지난	-9.31863
였음	-9.31882
역시	-9.32025
▁아이	-9.32061
▁평론가	-9.32083
브	-9.32151
▁부분이	-9.32152
▁마음을	-9.32336
▁M	-9.32375
▁아닐까	-9.32391
▁이유	-9.32416
▁비추	-9.32418
외	-9.32441
▁꿈	-9.32465
▁졸라	-9.3251
일까	-9.32557
▁만들었다	-9.32605
굿	-9.32734
▁b	-9.32758
ᄏᄏᄏᄏᄏᄏᄏᄏᄏᄏᄏᄏᄏᄏᄏᄏ	-9.32768
강추	-9.32847
았	-9.32856
겠지만	-9.32868
▁허접한	-9.32908
▁일본영화	-9.3304
▁모습을	-9.33056
▁내인생	-9.33115
▁새	-9.33127
척	-9.33153
-_-	-9.33168
▁나쁜	-9.33185
▁첨	-9.33202
r	-9.33383
▁생	-9.33409
빈	-9.33512
▁연출력	-9.33532
규	-9.33612
▁경	-9.33631
간다	-9.33736
▁귀여운	-9.33862
▁상상	-9.3387
▁달	-9.3394
▁입니다	-9.3397
▁하는데	-9.33994
▁장르	-9.34093
끝	-9.34236
▁좀비	-9.3435
무슨	-9.344
▁이야기가	-9.34429
봐라	-9.34454
▁작품이	-9.34465
▁또한	-9.34522
~^^	-9.34634
재밌	-9.34668
▁양	-9.34764
철	-9.34781
▁카메라	-9.34815
▁이정도	-9.34879
▁자신의	-9.34893
▁삶을	-9.34934
▁귀신	-9.34958
▁마치	-9.35011
이에요	-9.35209
▁없을	-9.35315
▁감성	-9.35331
▁보여주	-9.35483
▁매력적인	-9.35583
▁왜이렇게	-9.35615
▁그런데	-9.35628
▁영웅	-9.35677
▁액션이	-9.3569
▁웃음	-9.35701
▁비교	-9.35708
거임	-9.35783
▁범죄	-9.35788
특히	-9.35916
▁나만	-9.3593
찬	-9.3597
▁해주는	-9.36066
▁않음	-9.36108
▁잘봤습니다	-9.36211
버린	-9.36236
▁관객	-9.36271
▁천	-9.36334
▁좋았음	-9.36449
▁초딩	-9.3648
▁경찰	-9.36502
▁다음	-9.3662
었음	-9.36654
▁같습니다	-9.36701
반전	-9.36803
억	-9.36804
▁겁나	-9.36813
다면	-9.36817
▁다소	-9.36846
했으면	-9.36916
ᅲᅲᅲ	-9.36959
▁못하고	-9.36974
치는	-9.3701
방송	-9.37264
▁재미있	-9.37347
▁이젠	-9.37407
▁아빠	-9.37554
▁무서운	-9.37681
▁짜	-9.37742
▁느껴지는	-9.37743
어야	-9.3775
▁촬영	-9.3778
▁나와	-9.37834
▁몰입	-9.3786
▁있다는	-9.3786
▁볼수	-9.37943
▁봐	-9.38106
▁눈이	-9.38244
츠	-9.38347
▁데	-9.38392
혀	-9.38482
▁소재는	-9.38505
▁왠지	-9.38512
▁확실히	-9.38531
▁이영화가	-9.38551
▁영화중에	-9.38569
잔	-9.3859
였	-9.38689
▁지금봐도	-9.38697
없	-9.38755
효	-9.38768
▁낭비	-9.38939
하는거	-9.38939
▁역	-9.38978
을듯	-9.39017
▁있었던	-9.39021
▁충격	-9.39077
분들	-9.39131
▁성우	-9.3924
▁이런게	-9.39242
▁드라마를	-9.39336
▁않았다	-9.39477
▁좋았는데	-9.39486
▁하게	-9.39685
▁전기세	-9.39732
인거	-9.39739
▁여자가	-9.39815
▁유쾌한	-9.39856
▁든다	-9.39976
▁팬	-9.40045
더군요	-9.40051
▁감사합니다	-9.40055
▁리메이크	-9.40123
웃음	-9.40209
▁까	-9.40276
하여	-9.40283
▁드는	-9.40302
끼	-9.40311
귀	-9.40361
▁형	-9.40457
▁슬프다	-9.40506
▁아름답다	-9.40515
아닌	-9.4058
잇	-9.40594
▁별로다	-9.40634
▁훨	-9.40672
▁버	-9.40687
▁감상	-9.40732
하니	-9.4074
▁감탄	-9.40845
▁나를	-9.40903
▁-_-	-9.40911
▁킬링타임용	-9.40911
▁아니면	-9.40914
▁힘들	-9.40924
▁천재	-9.4101
▁로맨틱	-9.41027
▁C	-9.41094
이제	-9.41205
▁세상에	-9.41209
▁나이	-9.41224
▁독립영화	-9.41236
▁아놔	-9.4125
▁고민	-9.41256
말이	-9.41364
i	-9.41392
혜	-9.41409
▁마무리	-9.41418
▁생각한다	-9.41444
▁대작	-9.41459
▁집중	-9.41472
▁질질	-9.41536
직	-9.41539
플	-9.41559
▁프로그램	-9.41615
▁역대	-9.41632
좋다	-9.41722
▁어이없는	-9.41726
찍	-9.41738
▁보지마세요	-9.41862
코미디	-9.41878
▁만점	-9.41918
▁깊이	-9.41929
께	-9.41983
린다	-9.4199
▁아름답고	-9.42133
▁이번	-9.42149
전개	-9.42209
▁눈을	-9.42274
▁이후	-9.42295
▁휴	-9.4256
걸까	-9.42697
▁아닌데	-9.42719
▁OST	-9.42901
여서	-9.42918
풍	-9.42929
▁인물	-9.42929
▁프로	-9.42981
▁애들이	-9.42989
▁처음이다	-9.42989
▁그래픽	-9.42997
▁여전히	-9.43008
▁어색한	-9.4307
(?)	-9.43323
▁복수	-9.43434
▁암	-9.43491
스타	-9.43508
▁사는	-9.43577
▁스토리와	-9.43578
▁잡	-9.43646
▁감동적이고	-9.43668
숙	-9.43677
한번	-9.43781
▁독특한	-9.43803
▁깨	-9.4381
졌다	-9.43814
▁매력이	-9.43819
▁찍	-9.43928
▁나오고	-9.43968
실망	-9.43994
▁몸	-9.43995
▁예쁜	-9.44026
▁같	-9.44124
가족	-9.44209
▁대충	-9.4422
▁진행	-9.44252
아깝다	-9.44279
보면서	-9.44425
▁사람을	-9.44467
아이	-9.44656
▁내용을	-9.44669
▁보이는	-9.44816
벌	-9.44828
▁심리	-9.44928
▁드라마가	-9.44959
▁소재를	-9.44964
시간이	-9.45024
▁보고싶다	-9.4506
▁cg	-9.45122
려는	-9.45284
▁같음	-9.45286
▁~	-9.45374
처	-9.45388
▁게임	-9.45394
나서	-9.45457
▁잘만든	-9.45467
▁15	-9.45567
내요	-9.45573
▁나서	-9.45591
페	-9.45612
느	-9.45629
▁ᄉᄇ	-9.45676
▁늘	-9.45801
였는데	-9.45878
그러	-9.4588
@	-9.45887
▁했지만	-9.45991
▁그들의	-9.46036
▁서로	-9.46118
광	-9.46204
▁해준	-9.46238
▁함	-9.4628
▁그의	-9.4629
▁처	-9.46313
▁ᄏᄏᄏᄏᄏ	-9.4643
▁스토리를	-9.46442
속에	-9.4647
▁그러	-9.46488
▁긴	-9.46503
▁수준이	-9.46508
지고	-9.46576
▁떨어지는	-9.46678
▁굳이	-9.46683
▁사극	-9.46731
▁마라	-9.46773
결	-9.46776
▁아저씨	-9.46789
▁끝나고	-9.46823
▁삼	-9.46902
▁위	-9.47053
료	-9.47071
▁싫다	-9.47209
사람이	-9.47252
▁되어	-9.47318
으며	-9.47332
▁나에게	-9.47336
합	-9.47462
▁끝나	-9.47523
▁신선한	-9.47548
쯤	-9.47688
나온	-9.47734
▁찍은	-9.47753
▁연기력이	-9.47794
▁기분이	-9.47857
하는게	-9.47882
▁웃기	-9.47892
▁이유가	-9.48195
▁짜증나는	-9.48215
▁죽음	-9.4827
들어	-9.48308
도없고	-9.48436
▁나왔	-9.48436
▁영화이다	-9.48469
▁전에	-9.4849
적이고	-9.48523
▁과연	-9.48576
▁끝내	-9.48604
▁아까워	-9.48607
햇	-9.48744
▁질	-9.48757
▁종	-9.48769
▁떠나	-9.48797
▁먹	-9.48853
▁기대를	-9.48924
=	-9.49002
▁통해	-9.49034
련	-9.49149
▁돌려	-9.49181
▁평범한	-9.49305
품	-9.49316
▁난다	-9.49387
꼭	-9.49468
l	-9.49491
▁문	-9.49508
한데	-9.49509
▁순수한	-9.49567
▁그럭저럭	-9.49569
▁남주	-9.49683
▁재미있음	-9.49752
일뿐	-9.49809
▁라는	-9.49904
▁역시나	-9.49938
▁남는다	-9.4994
▁확	-9.49971
▁여성	-9.50029
재미없다	-9.50034
으나	-9.50056
k	-9.5007
▁산	-9.50126
작가	-9.5015
▁관람	-9.50155
▁성공	-9.50216
▁연기에	-9.50338
▁젤	-9.50375
▁그런가	-9.50381
▁했던	-9.50399
윤	-9.50412
주고	-9.50449
던지	-9.50479
이렇게	-9.5061
분이	-9.50658
▁살짝	-9.50702
▁어이가	-9.50728
▁있다면	-9.50739
▁사랑하는	-9.50774
▁평생	-9.50824
▁상영	-9.50828
▁가서	-9.50891
맞	-9.50924
네여	-9.50961
▁설명	-9.51016
▁가진	-9.51057
▁재미를	-9.51151
▁용	-9.51257
하긴	-9.51269
▁등장	-9.51283
하세요	-9.51301
▁병	-9.51381
만으로도	-9.51407
해지는	-9.51422
▁성장	-9.51497
이며	-9.51615
▁나왔으면	-9.51717
▁분명	-9.51734
준다	-9.51748
딱	-9.51756
노잼	-9.51777
최악	-9.51778
하자	-9.51882
h	-9.51961
▁집	-9.52055
▁써	-9.52095
▁사건	-9.52147
▁관계	-9.52151
음악	-9.5216
▁보는게	-9.52164
▁생각합니다	-9.52369
▁온	-9.52405
▁ᅮ	-9.52406
▁볼때마다	-9.52477
▁추	-9.52495
f	-9.52584
▁<	-9.52602
애니	-9.52671
▁여러	-9.52674
▁밑에	-9.52727
▁안되고	-9.5274
▁레	-9.52815
▁아버지	-9.52895
▁낮	-9.52942
▁공감이	-9.52963
▁동화	-9.53067
▁저렇게	-9.53081
들과	-9.5311
독	-9.53161
????	-9.53255
▁메	-9.53319
▁봤었는데	-9.53347
▁액션은	-9.53363
▁티비에서	-9.53389
▁아오	-9.53522
▁보기엔	-9.53568
▁연애	-9.53649
▁만들어진	-9.53698
▁귀엽고	-9.53723
▁19	-9.53822
▁재밌었는데	-9.54015
▁정치	-9.54058
▁패	-9.54103
손	-9.54113
▁ᄃᄃ	-9.54143
나오	-9.54153
없어	-9.54164
패	-9.54167
▁좋을	-9.54172
마저	-9.54251
▁음악이	-9.54292
▁주인공의	-9.54355
▁완성도	-9.54451
▁급	-9.54456
시대	-9.54493
되지	-9.54512
▁누구	-9.54667
▁그래	-9.54701
▁감사	-9.5474
▁볼만함	-9.549
▁재밌습니다	-9.5495
g	-9.54969
▁벌	-9.54983
써	-9.54992
탈	-9.55064
▁군대	-9.55098
▁진심으로	-9.55161
▁안됨	-9.55192
먼	-9.55244
였습니다	-9.55301
▁많	-9.55317
▁개판	-9.55387
잉	-9.55444
▁없지만	-9.55445
ᄂ	-9.55478
▁추천합니다	-9.55482
▁행동	-9.55523
▁유머	-9.5553
다른	-9.55595
▁우정	-9.55596
감독이	-9.5562
만화	-9.55641
▁세상	-9.55702
▁봤다가	-9.55704
동안	-9.55743
▁보시길	-9.55791
▁웃긴	-9.55853
▁연기와	-9.55974
성이	-9.55978
▁잼있게	-9.5603
까진	-9.56062
ᄍᄍ	-9.56128
S	-9.56147
▁속편	-9.56169
▁되었다	-9.56194
들아	-9.5624
▁스타일	-9.56288
어도	-9.56311
▁몰입이	-9.56345
▁알아	-9.56347
거같다	-9.56347
▁부분	-9.56389
▁영화지만	-9.56396
▁가끔	-9.5641
▁재밌었음	-9.56415
▁현	-9.56423
드는	-9.56428
▁미화	-9.56432
▁통	-9.56475
뜨	-9.56482
▁꼬	-9.56544
▁분들	-9.56802
▁필요없는	-9.56933
ᄉ	-9.57031
▁바보	-9.57042
책	-9.57075
▁안하고	-9.57086
▁법	-9.57088
,,,,	-9.57163
▁멋지다	-9.57184
▁있지	-9.57211
틀	-9.57213
▁볼수록	-9.57251
쪽	-9.57367
▁있습니다	-9.57483
▁둘	-9.57495
▁제목이	-9.57516
▁많다	-9.57579
▁살인	-9.57635
가지고	-9.57786
만든	-9.57836
▁가볍게	-9.57926
▁같아	-9.58013
하면서도	-9.58059
&	-9.58184
재밌다	-9.58216
▁완벽	-9.5829
튼	-9.58306
엉	-9.58351
▁뮤지컬	-9.58382
▁몸매	-9.58402
▁영화보고	-9.58418
▁사랑에	-9.58457
봉	-9.58475
결말	-9.58493
▁홍콩	-9.5871
▁추억의	-9.58758
주세요	-9.58792
▁재미없네	-9.58799
▁진실	-9.58818
졌	-9.58949
▁무지	-9.59069
▁되게	-9.59098
급영화	-9.59126
본다	-9.59213
▁좋습니다	-9.59214
싶	-9.59263
ᄒᄒᄒ	-9.59264
▁이건뭐	-9.59274
▁열심히	-9.59305
봐야	-9.59351
▁더이상	-9.59396
없네	-9.59421
딸	-9.59455
▁극장	-9.59477
▁만든다	-9.59522
▁후반부	-9.59529
▁한계	-9.59561
▁생각나는	-9.59561
였던	-9.59583
▁봤으면	-9.59597
쿠	-9.59655
▁노력	-9.5974
습	-9.59858
▁재밌네	-9.59873
변	-9.59878
▁홍보	-9.60076
▁말로	-9.60079
스럽다	-9.6009
▁목	-9.60131
▁크게	-9.60148
돌	-9.60227
겠네	-9.60265
함을	-9.60285
▁되지	-9.60301
▁자연	-9.60324
▁아들	-9.60325
▁예전	-9.60329
▁처음엔	-9.60376
▁북한	-9.60379
▁아는	-9.60481
▁소재로	-9.60496
▁이유는	-9.60506
▁드라마는	-9.60545
▁주인공들	-9.60565
염	-9.60569
기가	-9.60581
대사	-9.60616
청	-9.60627
▁영화냐	-9.60661
하던	-9.60736
▁귀	-9.60828
▁이정도면	-9.60874
▁놀	-9.60898
▁리얼	-9.60953
셔	-9.60966
▁아닌듯	-9.60983
▁어제	-9.61048
▁슬프고	-9.6105
▁봐야할	-9.61175
야지	-9.61224
▁감동과	-9.61226
▁느끼	-9.61237
▁상황	-9.61382
ᄆ	-9.61426
블	-9.61532
▁디즈니	-9.61616
▁높다	-9.61649
낸	-9.61656
추천	-9.62057
▁꼴	-9.6214
▁여운	-9.62315
오빠	-9.62324
엄마	-9.62375
인생	-9.62385
▁싫어	-9.62389
▁다만	-9.62402
▁현실성	-9.62419
▁그린	-9.62421
▁스케일	-9.62456
▁독	-9.62464
▁재밋다	-9.62479
웃	-9.62502
애들	-9.62605
▁거지	-9.62702
리가	-9.62731
▁한편	-9.62816
에서는	-9.62833
쇼	-9.62849
스런	-9.62893
존	-9.62929
▁쉽게	-9.62962
▁소름	-9.62962
보세요	-9.62964
▁그다지	-9.63008
▁어찌	-9.63086
▁춤	-9.63111
▁소재가	-9.6313
▁뛰어난	-9.63179
▁인상	-9.63298
씨가	-9.63317
▁이어	-9.63323
▁악역	-9.63341
▁만큼	-9.63352
▁;;	-9.63361
▁베	-9.63373
▁볼만하다	-9.63402
▁용서	-9.63425
▁표현한	-9.63438
량	-9.63455
인가요	-9.63482
▁좋았던	-9.63536
▁덜	-9.6354
▁섹스	-9.63542
점주는	-9.63595
▁언제나	-9.63616
런	-9.637
▁지나	-9.63706
▁지루해서	-9.63734
▁끝나는	-9.63748
내용이	-9.63762
리고	-9.63795
▁시간을	-9.63811
취	-9.6383
▁중간중간	-9.63955
힌	-9.63958
덕	-9.6399
▁바람	-9.64006
▁빠져	-9.64045
▁평이	-9.64159
재밌게	-9.64196
;;;;	-9.64267
싸	-9.64268
▁필요없다	-9.64282
▁40	-9.64386
▁우리가	-9.64396
▁있나	-9.64475
▁작	-9.64476
션	-9.64484
적이	-9.64525
는걸	-9.64594
▁남을	-9.64603
▁어른	-9.64648
▁싸구려	-9.64709
▁태	-9.64717
▁만들고	-9.64733
▁못했다	-9.64793
▁다큐멘터리	-9.64796
n	-9.64855
▁이쁜	-9.64899
▁표절	-9.64899
▁최근	-9.64985
▁싶어	-9.65018
▁재미있네요	-9.65068
에대한	-9.65083
빨	-9.6511
▁여기서	-9.65146
▁아깝지	-9.65198
익	-9.65262
▁작품성	-9.65307
▁12	-9.65309
을텐데	-9.65325
▁됐	-9.65384
▁배우의	-9.6543
▁엉성한	-9.65451
자가	-9.65479
팬	-9.6549
▁생각해	-9.65531
▁없나	-9.65786
▁신선	-9.6579
▁비주얼	-9.65795
▁삶의	-9.65806
▁몰입감	-9.65852
▁으	-9.65965
▁글쎄	-9.65983
거리	-9.65984
T	-9.66033
전에	-9.66077
▁유치함	-9.66167
에겐	-9.66331
▁어릴적	-9.66336
▁폭력	-9.6635
▁올해	-9.66358
▁디	-9.66364
▁고전	-9.66405
▁당	-9.66413
▁반전도	-9.66462
▁청춘	-9.66477
었어요	-9.66536
드라	-9.66549
송	-9.66588
▁현대	-9.6659
킹	-9.66641
▁전달	-9.66683
▁짱짱	-9.66695
속에서	-9.66745
▁흥미	-9.66765
로써	-9.66812
었으면	-9.66825
더라구요	-9.66844
▁죄다	-9.66955
것은	-9.66998
있음	-9.67033
▁A	-9.67042
▁어색	-9.67058
번째	-9.67096
▁골	-9.67125
▁재밋게	-9.67136
▁예고편	-9.67154
렌	-9.67177
▁나중에	-9.67211
▁리뷰	-9.67284
함이	-9.67328
▁건지	-9.67415
다운	-9.67435
때마다	-9.67492
황	-9.67523
▁초반에	-9.67543
▁벌써	-9.67546
▁힐링	-9.67554
맛	-9.6759
꼬	-9.67594
프로	-9.67602
▁발전	-9.67647
p	-9.67733
한듯	-9.67772
셨	-9.67774
▁재미있었다	-9.67828
있게	-9.67849
▁황당	-9.67966
▁음악도	-9.67993
령	-9.68093
▁말을	-9.68234
▁말하는	-9.68278
▁감동적이	-9.68295
▁않게	-9.68352
▁그림	-9.68425
그런	-9.68428
시키는	-9.68471
진심	-9.68482
▁드	-9.68486
▁보았다	-9.68564
▁연출도	-9.68653
▁광고	-9.6868
▁시대	-9.68796
▁저예산	-9.68863
죄	-9.68874
▁압권	-9.68923
▁스타	-9.68924
▁네	-9.69006
▁둘다	-9.6916
."	-9.69181
점준	-9.69276
▁않아	-9.69309
▁틀	-9.69315
▁단순한	-9.69345
▁웃겨	-9.69364
▁있게	-9.69425
걸로	-9.69433
해주는	-9.69485
좋고	-9.69623
▁몰라도	-9.69635
▁민	-9.6971
▁괴물	-9.69731
▁드럽게	-9.69787
▁싸	-9.69907
았다	-9.69912
▁불구하고	-9.69919
▁종교	-9.69962
곤	-9.69981
▁희생	-9.70014
▁회	-9.70135
▁관	-9.70182
▁전작	-9.70316
립	-9.70348
▁다시한번	-9.70366
▁빈	-9.70452
▁윤	-9.70473
멘	-9.70474
갑	-9.70534
▁알바들	-9.70541
▁옛날에	-9.70545
스릴러	-9.70595
▁담	-9.70608
▁어려운	-9.70701
▁좋아서	-9.70716
▁아쉬움	-9.7073
계속	-9.70751
는것	-9.70804
▁캐릭터들	-9.70806
▁결말도	-9.70808
▁크	-9.70842
친구	-9.70858
A	-9.70942
칠	-9.70992
▁만나	-9.71001
씩	-9.71001
▁방금	-9.71068
▁인생을	-9.71078
▁사람의	-9.71086
완	-9.71114
▁그걸	-9.71176
지루	-9.71177
▁탄탄한	-9.71233
겠	-9.71259
ᄏᄏᄏᄏᄏ	-9.71298
▁에휴	-9.71318
▁있으면	-9.71329
▁단순	-9.71354
▁어머니	-9.71405
▁이제야	-9.71535
▁보고싶은	-9.7154
▁누구나	-9.71555
▁되고	-9.71578
▁웃기고	-9.71616
▁있어요	-9.71623
▁생애	-9.71637
했을	-9.71661
▁현실적인	-9.71733
▁떠나서	-9.71772
or	-9.71779
▁의심	-9.71809
▁지금은	-9.7182
▁역할	-9.71889
▁짜증나	-9.71987
▁"""	-9.72005
로서	-9.72051
ᄀ	-9.72089
듬	-9.72144
ᅡ	-9.7216
▁하네요	-9.72179
보이	-9.7223
암	-9.72263
C	-9.72303
첨	-9.72311
▁낮아서	-9.72313
▁장면에서	-9.7233
▁취향	-9.72336
▁교훈	-9.72426
▁잔인한	-9.72437
▁맨	-9.72464
▁사랑과	-9.72557
▁성인	-9.72656
▁느끼는	-9.72657
▁미드	-9.72683
최고의	-9.72691
▁하는지	-9.72755
▁아나	-9.72772
지마라	-9.72804
▁결말은	-9.72944
▁나옴	-9.72961
찌	-9.72995
앗	-9.73039
▁그럼	-9.73059
▁인간이	-9.73159
인간	-9.73159
▁받	-9.73177
▁끌어	-9.73182
겟	-9.73209
얘기	-9.73221
j	-9.733
▁희망	-9.73311
▁유치하다	-9.73335
더만	-9.73357
봣는데	-9.7337
▁좀더	-9.73371
▁멍청한	-9.73371
년전에	-9.73374
▁사랑스러운	-9.73384
▁그렇다	-9.73387
뜻	-9.73479
아님	-9.73489
한영화	-9.73492
▁산으로	-9.73568
곡	-9.73653
▁쵝오	-9.73705
▁줌	-9.73811
부분	-9.73856
▁마세요	-9.73918
▁접	-9.7398
던가	-9.73991
▁아름다움	-9.74042
▁주제	-9.74057
일이	-9.74088
▁생각없이	-9.7409
▁무엇을	-9.74095
"""	-9.74111
▁많아	-9.74147
▁그렇다고	-9.74179
▁어쩔	-9.74201
▁조연	-9.74212
▁점수를	-9.74251
많은	-9.74283
내용도	-9.74297
▁인기	-9.74306
▁묘사	-9.74327
▁게이	-9.74363
▁트	-9.74363
▁모든게	-9.74411
세기	-9.74467
니깐	-9.74471
▁동물	-9.74488
▁포장	-9.7453
▁조폭	-9.74559
▁뻔하고	-9.74582
록	-9.74616
▁s	-9.74687
▁기본	-9.7469
시절	-9.74708
▁인생의	-9.74709
▁시대를	-9.74746
▁키	-9.7478
▁무섭다	-9.74866
▁표정	-9.74909
▁중간	-9.74948
유치	-9.74948
▁먼	-9.75069
영상	-9.75097
▁제작비	-9.75102
엇	-9.75154
▁하면서	-9.75213
▁왜케	-9.75295
▁포기	-9.7532
▁팔	-9.75327
머리	-9.75367
영화라고	-9.75368
▁숨	-9.75532
득	-9.75578
▁눈에	-9.75664
▁느와르	-9.75667
▁영화에요	-9.75698
▁흥미진진	-9.75774
▁견자단	-9.7587
▁높아	-9.75902
른	-9.75944
이니	-9.75951
버리는	-9.76038
할듯	-9.76116
▁젊은	-9.76142
말고	-9.76173
▁히	-9.76186
▁돌아	-9.76187
▁끝이	-9.7619
무비	-9.76203
에서도	-9.76339
▁못한다	-9.76385
▁70	-9.76621
▁싶	-9.76702
▁느낌을	-9.76819
B	-9.76957
밀	-9.76971
▁의도	-9.76982
링	-9.77061
▁정말로	-9.7707
▁있네요	-9.77097
▁싶네요	-9.77111
▁이후로	-9.77125
술	-9.77201
▁설	-9.77253
했네	-9.77305
▁울고	-9.77305
▁안되	-9.77316
성을	-9.77352
▁않나	-9.77357
필	-9.77362
♥♥	-9.77432
▁잔잔하고	-9.77453
인것	-9.77488
▁연속	-9.77501
▁흐	-9.77504
▁못해	-9.77528
▁투	-9.77531
있어	-9.7754
가지	-9.77557
▁헐리우드	-9.77585
▁스스로	-9.77601
▁눈물을	-9.77632
▁황	-9.77704
닥	-9.77711
평점이	-9.77712
노래	-9.77837
▁피해자	-9.77859
▁힘들다	-9.77872
▁집에서	-9.77972
연기도	-9.78044
편보다	-9.78084
20	-9.78094
▁죽는	-9.78126
▁에피소드	-9.78217
▁능력	-9.78226
▁작가가	-9.78253
▁연예인	-9.78302
▁생각하고	-9.7831
에요	-9.78319
▁가지	-9.78346
▁몇번을	-9.7836
▁없는데	-9.78454
▁대부분	-9.78504
▁중요한	-9.78516
▁채	-9.7853
▁즐겁게	-9.78597
시킨	-9.78648
▁상상력	-9.78715
▁나오지	-9.78738
했네요	-9.78757
봐요	-9.78831
견	-9.78852
▁자유	-9.78858
골	-9.78877
차라리	-9.78943
▁티비	-9.78974
▁나가	-9.7902
▁해야	-9.79088
▁이쁘고	-9.79107
▁맨날	-9.79116
▁의미를	-9.79211
▁쓰래기	-9.79246
짝	-9.79287
▁발로	-9.79372
왔	-9.79389
▁않지만	-9.7947
편을	-9.79492
같음	-9.79587
▁앞	-9.79617
▁하나하나	-9.79652
낮	-9.79681
▁고생	-9.7973
▁니	-9.79732
오는	-9.79764
▁답답	-9.79776
▁궁금	-9.798
▁더불어	-9.79975
▁시걸	-9.8
▁보니까	-9.80002
▁한데	-9.80033
있네	-9.80075
▁밥	-9.8015
앙	-9.80152
▁시트콤	-9.80175
정신	-9.80182
▁답	-9.80222
재밌음	-9.80311
▁에로	-9.80413
▁+	-9.80422
▁맥	-9.80464
봤	-9.8053
▁아이돌	-9.80561
▁헐리웃	-9.80569
얼	-9.80626
▁수도	-9.80649
▁ᅲᅲᅲ	-9.80667
▁허세	-9.80682
팔	-9.80724
공포	-9.80763
것을	-9.80795
▁신선하고	-9.808
▁빼고	-9.80804
▁지루할	-9.80842
▁복	-9.80864
▁딱히	-9.80957
눈물	-9.80963
봤음	-9.80972
▁바라	-9.81039
▁흔한	-9.8105
▁못할	-9.81057
▁무비	-9.81063
사이	-9.81067
▁더러운	-9.81086
▁코난	-9.81099
▁이거보고	-9.81225
하라	-9.81307
▁쫌	-9.81322
설정	-9.81324
하는지	-9.81376
▁김기덕	-9.81393
%	-9.81454
▁봣는데	-9.81497
▁정서	-9.81535
였지만	-9.81592
싱	-9.81651
기엔	-9.81673
.......	-9.81723
▁학교	-9.81742
▁올리	-9.81775
▁울었다	-9.81836
▁안타깝다	-9.81837
▁씨	-9.81863
답	-9.81889
▁I	-9.81961
옥	-9.82028
나와서	-9.82042
점수	-9.8205
▁한참	-9.82067
▁단연	-9.82081
▁속에	-9.82088
땅	-9.82092
엿	-9.82103
▁단지	-9.82197
▁넘어	-9.82203
▁개연성이	-9.82232
보자	-9.82245
▁작은	-9.82289
버렸다	-9.82346
▁웃음이	-9.82353
▁기대했는데	-9.82442
하다니	-9.8263
시는	-9.82662
▁쩐다	-9.82675
▁덕분에	-9.82693
엘	-9.8272
클	-9.82731
▁경험	-9.82732
만의	-9.82765
▁생각하는	-9.82772
▁긴장감도	-9.82797
▁어린이	-9.82833
▁제작진	-9.82844
제발	-9.82886
*	-9.82964
▁의외로	-9.8297
▁공부	-9.82986
놈들	-9.83062
▁재미없어요	-9.83082
▁떠	-9.83114
▁본다면	-9.8319
▁후반	-9.83197
▁보여	-9.83209
▁베스트	-9.83209
▁지루하게	-9.83222
▁이해할	-9.83222
땐	-9.83223
▁대화	-9.83284
▁아쉽네요	-9.83382
▁보인다	-9.83428
▁갈등	-9.83433
▁남자가	-9.83481
▁동안	-9.83485
▁최고입니다	-9.83504
▁우와	-9.83521
춘	-9.83522
힐	-9.83542
▁the	-9.83554
▁다룬	-9.83581
▁안돼	-9.83606
하시는	-9.83619
▁반성	-9.8362
▁얼	-9.83667
ᄃᄃ	-9.8368
▁몰입해서	-9.8368
나고	-9.83719
▁같아서	-9.83759
십	-9.83805
갔	-9.8385
▁싸이코	-9.83861
▁대사가	-9.83885
▁영화였어요	-9.83956
총	-9.8405
롱	-9.84062
▁살고	-9.8407
▁읽	-9.84136
▁ᄋᄋ	-9.84166
따라	-9.84174
▁이런영화가	-9.84187
▁노답	-9.84203
▁배우들도	-9.84264
▁작품이다	-9.84338
영화중	-9.84387
▁부모	-9.84399
▁문화	-9.84458
▁웃	-9.84477
▁007	-9.84509
▁사랑은	-9.84517
몰	-9.84534
▁메시지	-9.84588
제목	-9.84653
▁S	-9.84675
▁안보고	-9.84732
했어	-9.84736
▁캐	-9.84743
▁어휴	-9.84767
혹	-9.8477
었습니다	-9.84809
▁위대한	-9.84902
씨의	-9.8493
▁이연걸	-9.84933
▁이해하기	-9.84954
▁군	-9.84975
▁잊혀지지	-9.85013
▁사랑의	-9.85055
▁직접	-9.8507
▁호러	-9.85194
려서	-9.85197
▁흐름	-9.85212
▁범인	-9.85221
응	-9.85245
놓은	-9.85262
만으로	-9.85294
▁조합	-9.85303
한다는	-9.85385
▁모르겠고	-9.85395
▁높	-9.85396
........	-9.85579
먹고	-9.85594
▁청소년	-9.85638
▁따뜻해지는	-9.8565
▁음악과	-9.85681
▁루	-9.85721
x	-9.8573
▁미모	-9.85777
▁짓	-9.85815
알바	-9.85816
▁채널	-9.85869
▁18	-9.8591
▁굿굿	-9.85968
▁엉망	-9.85971
으로서	-9.86046
▁사랑이야기	-9.86058
보지	-9.8612
아주	-9.86135
끝까지	-9.86181
▁말하고	-9.86265
▁박수를	-9.86323
▁딴	-9.86519
▁순수	-9.86563
▁게다가	-9.8661
▁따	-9.86622
▁티	-9.86632
▁볼게	-9.86675
▁짝퉁	-9.86691
잠	-9.86714
▁50	-9.86756
언니	-9.86872
택	-9.8691
했는지	-9.86915
것만	-9.86993
▁시도	-9.87011
▁보길	-9.87014
▁자막	-9.87017
▁전편	-9.87067
아서	-9.87133
▁행복한	-9.87226
▁하루	-9.87226
▁영화인듯	-9.87244
갔다	-9.8731
▁와우	-9.87362
▁페	-9.87365
시즌	-9.8741
떄	-9.87433
▁흥미로운	-9.87438
▁넘치는	-9.87528
▁없었	-9.8758
나와	-9.8763
새끼	-9.87742
시작	-9.87815
▁빼고는	-9.87824
소재	-9.87847
휴	-9.87875
징	-9.87924
▁재미있었어요	-9.87927
▁전체	-9.87978
엄	-9.87997
▁지구	-9.87998
째	-9.88028
하다가	-9.88072
▁했	-9.88091
▁작품을	-9.88121
▁남자의	-9.88187
▁봤더니	-9.88235
거라	-9.88274
▁부족하다	-9.88283
▁학교에서	-9.88287
시켜	-9.883
▁그렇지	-9.88311
▁자살	-9.8833
지않고	-9.8835
▁좋아할	-9.88364
▁쓰레기다	-9.88411
▁멋있다	-9.88465
만들어	-9.88466
▁푹	-9.88489
▁임	-9.88498
같	-9.88502
▁좋지만	-9.88534
▁이쁘다	-9.88564
▁계	-9.88568
▁부터	-9.88573
▁긴장	-9.88598
문제	-9.88667
▁여행	-9.887
예요	-9.88721
중의	-9.88752
▁레전드	-9.88763
표현	-9.88779
캐릭터	-9.88824
▁교	-9.88841
▁일상	-9.88882
모습	-9.88886
▁유쾌하고	-9.88935
▁카리스마	-9.88957
▁뭐라	-9.88969
영화임	-9.89028
▁나쁘지	-9.89031
웠	-9.8908
▁실제로	-9.8909
인이	-9.89104
▁꿈을	-9.89165
c	-9.89188
▁청	-9.89203
하신	-9.8921
일본	-9.89274
▁속에서	-9.89317
▁갑	-9.89337
▁감정을	-9.89399
▁[	-9.89403
▁칼	-9.8941
▁필요한	-9.89422
▁먹고	-9.89442
영화로	-9.89454
봅니다	-9.89466
이라서	-9.89515
▁웃김	-9.89548
되서	-9.89553
▁대단	-9.89592
▁즐거운	-9.89611
그래	-9.89623
▁유쾌	-9.89626
하구	-9.8971
▁터	-9.89725
▁펑펑	-9.89737
감이	-9.89796
요즘	-9.89839
▁암튼	-9.8988
이였다	-9.89889
였고	-9.899
버리고	-9.89906
탕	-9.89909
한국	-9.89935
기분	-9.89952
▁금	-9.89963
시고	-9.89978
▁영어	-9.90015
였어요	-9.90027
▁달리	-9.90085
▁뛰어	-9.90122
있는데	-9.90126
연기가	-9.90136
▁완전히	-9.90138
▁비판	-9.90145
▁소녀	-9.90165
▁국	-9.90191
ing	-9.902
▁주성치	-9.90307
▁좋아하는데	-9.90343
▁꺼	-9.90463
▁왠만하면	-9.90551
▁제로	-9.90571
▁미안	-9.90582
▁한마디	-9.90597
부작	-9.906
▁나오면	-9.90659
넹	-9.9079
▁십	-9.90822
▁로봇	-9.90834
▁들었다	-9.90839
연기력	-9.9084
▁우주	-9.90847
▁좋았지만	-9.90874
▁시사회	-9.90918
▁까지	-9.90958
그래서	-9.90972
개봉	-9.91108
▁모르겠지만	-9.91139
사람은	-9.91186
들만	-9.91327
▁고양이	-9.91333
▁없었던	-9.91347
▁간다	-9.9137
▁동생	-9.91472
하시	-9.91476
▁좋았으나	-9.91481
충	-9.91487
▁뒤로	-9.91534
족	-9.91536
▁죽은	-9.91538
▁주기	-9.91557
▁라고	-9.91563
▁없지	-9.91573
만이	-9.91637
▁홍	-9.91663
봤던	-9.91678
시다	-9.91692
▁질리지	-9.91701
▁망한	-9.91731
▁있던	-9.9175
하려는	-9.91764
?!	-9.91815
▁느껴진다	-9.91827
이걸	-9.91827
ᄃ	-9.9183
▁않을까	-9.91872
껏	-9.91916
▁관객들	-9.91928
욱	-9.91936
받고	-9.91939
▁뻔	-9.91961
줌	-9.92059
▁논	-9.92074
▁짜증난다	-9.92135
▁지루했다	-9.92136
▁월	-9.92146
▁연기자들	-9.9221
▁잊지	-9.92247
▁빼	-9.92377
▁말할	-9.92437
▁똑같은	-9.92496
막장	-9.92517
▁아이가	-9.92557
▁재밌다고	-9.92583
▁퀄리티	-9.92591
▁한심	-9.92611
▁끝난	-9.92643
▁관한	-9.92686
▁보고나면	-9.9278
▁힘이	-9.92795
▁비극	-9.92804
한게	-9.92804
▁좋게	-9.92811
▁자신	-9.9283
▁이유를	-9.92854
▁보여준다	-9.92915
밥	-9.92962
▁의리	-9.92986
▁원작의	-9.9299
장난	-9.93001
▁잔	-9.93022
▁역대급	-9.93025
▁많고	-9.93077
▁할까	-9.93129
▁보며	-9.9313
이었음	-9.93154
▁무협	-9.932
▁보이	-9.93248
▁외모	-9.93295
우리	-9.93302
상황	-9.93318
▁사이	-9.93384
▁빠진	-9.93389
▁남녀	-9.93391
▁꽝	-9.93406
공감	-9.9342
▁있었	-9.93449
▁남겨	-9.93566
▁보긴	-9.93669
▁미래	-9.93676
하지도	-9.93707
자는	-9.93719
와는	-9.93733
▁됨	-9.93753
▁크리스마스	-9.93781
▁명품	-9.93899
▁찡	-9.93902
▁포르노	-9.93918
▁연기력도	-9.93939
▁기대안하고	-9.9394
▁시선	-9.93957
지를	-9.93973
좋아요	-9.94042
▁반개도	-9.94057
났다	-9.94059
▁레알	-9.94077
▁볼거리	-9.94112
들고	-9.94167
했나	-9.94184
▁봤을때	-9.94221
주인공	-9.94264
▁영국	-9.9431
▁일품	-9.9432
▁아마	-9.94322
깨	-9.94322
▁빠	-9.94364
▁커플	-9.94368
빵	-9.94392
▁필름	-9.94412
▁악마	-9.94437
했다는	-9.94449
▁홍콩영화	-9.94523
▁잠깐	-9.9455
▁로그인	-9.94586
▁대해서	-9.94592
▁한명	-9.94611
▁좋아해서	-9.94652
▁우리의	-9.94661
▁각	-9.94672
▁좋겠어요	-9.94804
고싶다	-9.94827
나올	-9.94829
▁손발이	-9.94836
▁개뿔	-9.94867
▁평범	-9.94898
사는	-9.94948
▁잼있다	-9.9496
엠	-9.9497
▁받아	-9.95012
킨	-9.95054
▁시청	-9.95206
▁그녀	-9.95222
씬은	-9.95355
▁합	-9.95366
한건	-9.95383
▁이제서야	-9.95389
▁케이블	-9.95399
▁명작이	-9.95402
▁유명	-9.95426
▁긴장감이	-9.95436
▁우울	-9.95454
▁:	-9.95472
▁내려	-9.95475
감독의	-9.95499
▁양심	-9.95537
만들	-9.95609
▁뒷	-9.95622
▁없다는	-9.95622
감독님	-9.95671
▁재미와	-9.95683
▁진정	-9.95684
▁지나치게	-9.95736
▁헤	-9.95757
▁둘이	-9.95779
]	-9.95843
혼	-9.9591
▁어린시절	-9.95946
와서	-9.95966
껄	-9.95976
▁열정	-9.95993
▁느낄수	-9.96035
▁잼있	-9.96058
▁끌	-9.96072
▁광	-9.96101
▁오바	-9.96109
▁소름이	-9.96154
▁개봉한	-9.96174
혁	-9.96257
▁무섭지도	-9.96341
▁풍경	-9.96342
는건지	-9.9635
편의	-9.9647
▁괜찮	-9.96547
▁쇼	-9.96549
▁유명한	-9.96553
▁평점보고	-9.96643
▁해석	-9.96656
대는	-9.96656
▁밀	-9.96723
만드는	-9.96724
▁13	-9.96733
원작	-9.96739
▁취	-9.96762
▁출연진	-9.96768
▁자주	-9.96829
▁웃기지도	-9.96843
있나	-9.96848
▁쓸	-9.96855
▁기자	-9.96872
▁정의	-9.96909
▁무섭	-9.9691
▁탈	-9.96912
▁영화관	-9.96948
그리	-9.96991
▁모르게	-9.9704
▁겨우	-9.97136
▁있었지만	-9.97139
▁재밌었	-9.97166
▁T	-9.97198
▁인해	-9.97288
▁훌륭	-9.97316
접	-9.97317
얼굴	-9.97349
수록	-9.9736
없어서	-9.97367
▁감동적	-9.97382
O	-9.97385
력이	-9.97488
▁일이	-9.97516
▁개막장	-9.97591
줘	-9.97598
놓	-9.97631
▁풍	-9.97679
▁국민	-9.97733
착	-9.97739
▁답답한	-9.97748
▁착한	-9.97751
뭔가	-9.97884
▁관심	-9.97905
▁드립니다	-9.97928
▁죽여	-9.97937
▁하는거	-9.97974
▁11	-9.98032
▁눈빛	-9.98035
▁우리는	-9.9807
//	-9.98151
▁가득	-9.98155
▁사람들의	-9.98191
하려고	-9.9821
▁화가	-9.9828
▁어렸을	-9.98317
있어서	-9.98337
▁극치	-9.98369
▁형님	-9.98396
레이	-9.9845
w	-9.98454
▁국내	-9.9849
▁가슴에	-9.98519
해진	-9.98544
님의	-9.98553
▁졸리	-9.98561
▁되었	-9.98572
▁쩝	-9.9862
쓴	-9.98633
까지는	-9.98634
현실	-9.98654
마지막에	-9.98827
▁작품은	-9.98843
쥐	-9.98861
어떻게	-9.98871
놀	-9.98892
이자	-9.98905
재밌어요	-9.9891
장면이	-9.9893
▁다르	-9.98932
▁있는지	-9.98941
도아니고	-9.98988
▁신기	-9.98998
▁붙	-9.99037
힘	-9.99039
▁반복	-9.9907
▁판	-9.99073
▁도전	-9.99115
▁받을	-9.99181
누나	-9.99202
▁보기에	-9.99206
자의	-9.99228
▁왜이래	-9.99273
팅	-9.9928
▁자신이	-9.99348
▁몇몇	-9.99352
였어	-9.99361
▁없어요	-9.99382
▁감히	-9.99424
▁D	-9.99431
▁척	-9.99488
▁보여주고	-9.9957
▁사기	-9.99595
끈	-9.99601
겁니다	-9.9961
더빙	-9.99636
▁남편	-9.99764
▁보았습니다	-9.99781
형님	-9.99813
편도	-9.99837
▁바꾸	-9.99857
▁가치가	-9.99866
점줌	-9.99876
으로써	-9.99881
▁차이	-9.99942
▁요소	-9.99993
안에	-10.0002
▁떨어진다	-10.0002
▁슈퍼	-10.0002
▁악당	-10.0003
▁전쟁영화	-10.0004
▁c	-10.0006
▁아픈	-10.0015
▁보통	-10.002
▁찾	-10.002
▁있어야	-10.0025
▁당시에	-10.0026
점이다	-10.0027
▁싶지	-10.0028
모두	-10.0036
▁이하	-10.0037
▁엉성	-10.0041
▁이런영화를	-10.0049
▁욕망	-10.0052
▁재미없게	-10.0059
시키	-10.006
싶다	-10.0075
▁원작이	-10.0075
▁삶에	-10.0081
▁1,2	-10.0082
▁색다른	-10.0084
필요	-10.0091
짜증나	-10.0092
▁잊을	-10.0093
년도에	-10.0101
▁뭉클	-10.0101
▁높게	-10.0112
E	-10.0113
▁진부하고	-10.0117
I	-10.0117
▁흑인	-10.0118
▁싶은데	-10.0121
배경	-10.0129
▁아예	-10.0129
▁오버	-10.0131
재밋	-10.0133
▁풀	-10.0134
▁웃기다	-10.0135
▁괜찮은데	-10.0153
▁장르가	-10.0156
▁철	-10.0156
▁주변	-10.0158
렁	-10.0159
▁알겠는데	-10.0164
사람들이	-10.0165
▁편견	-10.0166
▁대본	-10.0171
줬	-10.0178
▁이쁘	-10.0179
▁살려	-10.0179
▁그녀의	-10.018
치곤	-10.0182
▁여자들	-10.0184
▁DVD	-10.0185
▁점수가	-10.0186
자체가	-10.0188
▁개연성도	-10.0188
센	-10.0194
G	-10.0194
▁따로	-10.0195
샤	-10.0195
▁뿐이다	-10.0196
▁친	-10.0197
▁식	-10.0198
▁형사	-10.0198
▁술	-10.02
▁메세지	-10.0213
분은	-10.0217
▁없습니다	-10.0225
괴	-10.0226
▁탑	-10.0232
▁답답하고	-10.0234
▁생각함	-10.0234
인의	-10.0236
▁위해서	-10.0238
▁ᄋ	-10.0241
▁캐릭터가	-10.0242
▁실패	-10.0246
▁훈훈한	-10.025
관계	-10.0254
지말고	-10.0256
▁발견	-10.0261
▁비하면	-10.0263
▁받는	-10.0265
▁할말이	-10.0268
▁마이클	-10.0269
든다	-10.0269
▁재밌던데	-10.0269
▁나왔다	-10.0284
▁못함	-10.0284
▁변태	-10.0285
!!!!!	-10.0286
▁멋	-10.0288
풀	-10.0289
긴한데	-10.0292
끔	-10.0293
▁찍어	-10.0299
▁근	-10.0301
▁훌륭하다	-10.0304
릭	-10.0307
아니다	-10.0309
▁안타까운	-10.0312
▁안보	-10.0315
▁해결	-10.0318
함과	-10.0319
것같아요	-10.0322
▁쓰레기같은	-10.0323
▁멀	-10.0328
▁앞으로도	-10.0332
▁그거	-10.0333
▁심하게	-10.0336
▁팬이	-10.0343
똥	-10.0346
▁야구	-10.0359
거같은데	-10.036
▁체	-10.0364
▁있구나	-10.0366
▁나은	-10.037
▁모르겠음	-10.0372
▁찬	-10.0378
나게	-10.0379
▁문제가	-10.0382
▁말도안되는	-10.0382
돼	-10.0398
▁조작	-10.0406
▁왠	-10.0413
er	-10.0414
▁못하다	-10.0414
▁아줌마	-10.0415
홍	-10.0417
▁웃고	-10.0421
꼴	-10.0429
▁거짓말	-10.0429
▁재미잇	-10.0433
▁잼나	-10.0444
▁죄	-10.0445
님이	-10.0457
▁운	-10.0458
재미없	-10.0461
랄	-10.0462
▁연출과	-10.0463
▁추억이	-10.0465
버리	-10.0465
ᄅ	-10.0465
엔딩	-10.0467
▁효과	-10.0468
나오고	-10.0469
▁한국영화는	-10.0471
으면서	-10.0478
보는내내	-10.0481
▁작가님	-10.0493
세계	-10.0504
ᅲᅲᅲᅲ	-10.0505
▁이러	-10.051
▁한심한	-10.0511
▁감동적이다	-10.0514
했으나	-10.0515
▁밤	-10.0526
최	-10.0528
기억	-10.0529
텐데	-10.0534
OOO	-10.0534
스타일	-10.0534
리스	-10.054
▁할수	-10.0542
▁송	-10.0547
▁무엇인지	-10.0549
▁외국	-10.0557
▁예쁘고	-10.0557
재미있	-10.0559
건가요	-10.056
져서	-10.0561
▁이미지	-10.0567
하기도	-10.0567
명이	-10.0568
자리	-10.0569
▁소중한	-10.057
▁빵점	-10.057
버림	-10.0571
▁여러가지	-10.0571
흐	-10.0572
▁킬링타임	-10.0578
▁영원히	-10.0582
▁낮아	-10.0594
▁투자	-10.0595
▁만들면	-10.0599
▁명작입니다	-10.0599
▁잘하고	-10.0601
랄까	-10.0607
▁보려고	-10.061
▁죽이는	-10.0614
▁자신을	-10.0615
▁잼있어요	-10.0617
▁하나의	-10.0625
킬	-10.0641
▁죽는줄	-10.0643
▁남아	-10.0645
▁깨닫게	-10.0647
▁세상을	-10.0651
▁느낀	-10.0657
▁갖고	-10.066
▁막장드라마	-10.0661
▁분위기가	-10.0665
▁낮게	-10.0667
▁않네요	-10.0668
낼	-10.0671
M	-10.0675
▁최초	-10.0682
▁비밀	-10.0685
하길	-10.0686
▁그건	-10.0686
▁살면서	-10.0688
▁만들었	-10.0694
시간에	-10.0694
▁허무	-10.0698
▁커	-10.0698
▁노래도	-10.0699
좋음	-10.07
▁쓰는	-10.0704
▁남자주인공	-10.0707
있었	-10.0709
▁누군가	-10.0712
▁본영화	-10.0713
안되	-10.0713
년만에	-10.0717
▁사진	-10.072
▁하나같이	-10.0721
매력	-10.0723
율	-10.0728
편에	-10.0729
▁정도의	-10.073
좋아하는	-10.0731
▁볼때	-10.0732
▁추리	-10.0737
~!!!	-10.0743
으니까	-10.0745
세상	-10.0745
▁어릴	-10.0752
그만	-10.0752
▁있었는데	-10.0754
▁좋았	-10.0757
임에도	-10.0757
깔	-10.0758
한다면	-10.0761
▁그것	-10.0761
나옴	-10.0761
▁다행	-10.0763
▁21	-10.0765
▁뜻	-10.0766
해주세요	-10.0769
▁맞아	-10.0772
할까	-10.0773
▁영화들	-10.0774
생활	-10.078
▁귀엽	-10.078
웅	-10.078
--	-10.078
영화에	-10.0783
▁비디오로	-10.0785
▁전개도	-10.0787
간의	-10.0789
▁죽을	-10.0791
사람들은	-10.0793
자들	-10.0796
▁핵	-10.0796
▁돋	-10.0798
▁빌려	-10.0799
▁불러	-10.0801
멋	-10.0808
▁불쌍	-10.0818
뒤	-10.082
▁집에	-10.0823
▁배우를	-10.0823
배우들의	-10.0827
▁보지마라	-10.0828
▁이상하게	-10.0831
▁받았	-10.0838
▁그럴	-10.0841
▁느꼈다	-10.0842
▁슬픔	-10.0843
으론	-10.0844
논	-10.0844
▁나머지	-10.0849
사건	-10.0853
오늘	-10.0853
▁씬	-10.0859
▁생각나서	-10.0859
봤네요	-10.086
▁자식	-10.0868
▁잔뜩	-10.0868
▁다양한	-10.0868
▁무척	-10.0869
해진다	-10.0872
▁죽이고	-10.0875
▁설마	-10.0875
한다고	-10.0876
▁진리	-10.0879
▁오래된	-10.088
▁구성이	-10.0881
▁영화보는	-10.0882
▁돈을	-10.0885
▁듣고	-10.0887
▁생각하면	-10.0887
북	-10.0893
▁이것이	-10.0893
▁모두가	-10.09
하는건	-10.0903
▁관객을	-10.0912
롭	-10.0913
▁격	-10.0919
▁표	-10.0924
값	-10.0925
▁무술	-10.0925
▁어쩜	-10.0932
높	-10.0934
▁분들은	-10.0945
▁특별한	-10.0951
▁해라	-10.0953
▁연결	-10.0956
▁열연	-10.0959
▁ᄏᄏᄏᄏᄏᄏ	-10.0964
▁여운을	-10.0966
자나	-10.0967
▁소소한	-10.0974
▁한국에서	-10.0975
▁이때	-10.0976
▁아닙니다	-10.0981
▁공포물	-10.0985
▁패러디	-10.099
▁sf	-10.099
▁2014	-10.1002
순간	-10.1006
▁핵노잼	-10.1007
흔	-10.1011
▁젠장	-10.1015
▁단어	-10.1017
▁최근에	-10.1019
30	-10.1019
엇다	-10.1029
스러움	-10.1029
좌	-10.1032
기위해	-10.1033
햇다	-10.1034
내는	-10.1038
듯이	-10.1041
하겠다	-10.1042
▁살아가는	-10.1045
▁감정이	-10.1048
▁치고	-10.1051
▁한국인	-10.1051
▁교육	-10.1052
▁명화	-10.1054
▁국가	-10.1066
것들	-10.1069
겟다	-10.1072
▁폭	-10.1073
▁식상한	-10.1073
▁감동의	-10.1073
▁마이너스	-10.1074
▁적당	-10.1075
▁최고였다	-10.1076
는것도	-10.108
▁시각	-10.1081
▁수준의	-10.1081
▁첫사랑	-10.1083
났	-10.1083
▁주인공은	-10.1087
▁분노	-10.1088
가요	-10.1092
▁만들다니	-10.1093
▁무서워	-10.1094
속의	-10.1101
해준	-10.1102
지않은	-10.111
모든	-10.111
ᄇ	-10.1112
려면	-10.1112
▁그렇	-10.1113
옹	-10.1115
▁중반	-10.1116
▁결코	-10.1118
v	-10.1119
▁억지스러운	-10.1122
▁외계인	-10.1122
▁d	-10.1123
▁풍자	-10.1125
▁최고임	-10.1126
▁썩	-10.1129
▁배역	-10.1131
많	-10.1131
▁낚였다	-10.1138
▁후속작	-10.1145
▁처럼	-10.1147
▁반전은	-10.1159
▁노래가	-10.1162
년작	-10.1165
이름	-10.1169
▁아깝	-10.1177
▁시청률이	-10.1179
▁다르다	-10.118
▁가슴을	-10.1181
보게	-10.1182
▁용기	-10.1184
솔직히	-10.1185
▁출	-10.1186
▁아쉽	-10.1192
생각이	-10.1192
명의	-10.1192
▁재밌을	-10.1195
▁남은	-10.1198
▁가정	-10.12
▁바랍니다	-10.1201
▁스트레스	-10.1201
▁극장가서	-10.1202
사회	-10.1208
▁연극	-10.1209
m	-10.1214
빼고	-10.1215
▁넌	-10.1217
▁방영	-10.1217
했다면	-10.1219
감정	-10.122
▁전문가	-10.1222
▁출연한	-10.1225
▁특수효과	-10.1227
영화의	-10.1229
▁결말을	-10.1231
▁영화보면서	-10.1235
▁마지막까지	-10.1245
▁두번째	-10.1246
▁참신한	-10.1247
▁업	-10.1253
▁캬	-10.1255
▁에로영화	-10.1257
▁자체는	-10.1259
람	-10.126
▁만한	-10.1264
▁본방사수	-10.1265
▁다운	-10.127
▁잘만들었	-10.1279
▁모르	-10.1283
▁킬링타임용으로	-10.1287
▁두고	-10.1288
▁엘	-10.1288
..;;	-10.129
▁평론가들	-10.129
▁쉬	-10.1292
▁중에서	-10.1302
하더라	-10.1302
▁소년	-10.131
▁대중	-10.1311
▁짜임새	-10.1312
▁잼나게	-10.1312
▁빨	-10.1317
▁초등학생	-10.1318
두고	-10.1322
▁애들은	-10.1326
▁막판에	-10.1328
옴	-10.1329
▁동성애	-10.1334
▁강한	-10.1343
▁가족영화	-10.1343
▁괜찮다	-10.1345
▁기술	-10.1346
▁탄생	-10.1346
▁풀어	-10.1348
현실을	-10.1348
▁탄탄	-10.1348
▁지나도	-10.1348
항	-10.1352
▁시리즈중	-10.1353
커플	-10.136
덜	-10.1361
▁뭘까	-10.1364
▁봅니다	-10.1366
▁영상이	-10.1367
▁연기력은	-10.1367
릿	-10.1368
이든	-10.137
면서도	-10.1373
▁가능	-10.1376
▁그것도	-10.1377
했었는데	-10.1378
였으면	-10.1382
▁폴	-10.1389
▁빼면	-10.1393
▁권	-10.1397
▁달라	-10.1399
▁살린	-10.1403
▁싸우는	-10.1405
용으로	-10.1407
▁제임스	-10.141
다음	-10.1421
상을	-10.1425
▁자극	-10.1427
▁재난영화	-10.143
▁모험	-10.143
▁좋았을	-10.1431
▁재미있습니다	-10.1431
▁고통	-10.1431
▁참신	-10.1434
▁재미없었다	-10.1437
▁불쌍하다	-10.1443
▁만든영화	-10.1444
ᄌ	-10.1445
텔	-10.1455
▁다시는	-10.1455
스럽고	-10.1455
▁짧은	-10.1457
▁내용인지	-10.1461
▁재미도없고	-10.1461
▁처음에	-10.1466
혹은	-10.1469
자신	-10.147
▁어설프고	-10.1473
▁a	-10.1474
▁정작	-10.1475
▁이런건	-10.1482
▁생각했는데	-10.1482
on	-10.1492
겠음	-10.1493
▁아직까지	-10.1497
▁묻	-10.1499
▁조화	-10.1501
▁퍼	-10.1509
▁변화	-10.1519
살아	-10.1525
떠	-10.1529
▁돼	-10.1533
ᅵ	-10.1534
점대는	-10.1537
▁이래서	-10.1542
▁정말이지	-10.1549
재미없음	-10.155
만큼은	-10.1552
▁현실이	-10.1553
기로	-10.1555
▁신파	-10.1555
▁사상	-10.1558
▁블록버스터	-10.1562
꾸	-10.1567
▁별로임	-10.1572
전쟁	-10.1578
끄	-10.1578
수있는	-10.158
때매	-10.1581
▁야동	-10.1585
누	-10.1589
개도	-10.1596
▁색	-10.1596
.........	-10.1599
▁만들었는지	-10.1603
▁길게	-10.1617
▁손에	-10.1619
▁아래	-10.1623
▁많아서	-10.1624
궁	-10.1625
지않는	-10.1627
젤	-10.1627
둘	-10.1632
올리	-10.1634
▁할머니	-10.1637
▁거기에	-10.1638
▁의미가	-10.1638
▁대놓고	-10.164
▁살다살다	-10.1643
있었다	-10.1646
줄이야	-10.1646
▁만남	-10.1648
▁멍청	-10.165
▁엉성하고	-10.1652
겠죠	-10.1652
거리는	-10.1652
▁수많은	-10.1657
▁생각할	-10.1657
끝나	-10.1662
어린	-10.1663
▁아무런	-10.1664
▁깜짝	-10.1668
▁따뜻하고	-10.1668
▁새벽에	-10.1668
▁어울리는	-10.1669
▁보던	-10.167
▁괜찮았다	-10.1673
▁아내	-10.1676
아빠	-10.1685
▁주제를	-10.1689
▁환상	-10.169
물이	-10.1699
스가	-10.1706
솔	-10.1707
▁데리고	-10.1707
▁오빠	-10.1709
내고	-10.171
스럽게	-10.171
▁여자의	-10.1714
▁짜증나서	-10.1714
아저씨	-10.1718
▁잭	-10.1719
▁짠	-10.1722
▁이따위	-10.1723
▁몰	-10.1724
계의	-10.1728
▁매력을	-10.173
▁그려	-10.1732
했지	-10.1739
▁싸움	-10.1744
듯하다	-10.1749
쳤	-10.1752
봤지만	-10.1753
▁인간들	-10.1754
▁목적	-10.1758
부족	-10.1762
▁소재도	-10.1767
▁심지어	-10.1768
가슴	-10.1768
냥	-10.1768
르고	-10.1771
▁좀비영화	-10.1782
▁보려	-10.1785
▁몰랐다	-10.1786
▁결	-10.1788
▁등등	-10.1792
랜	-10.1796
▁전설의	-10.1801
것같은	-10.1801
▁보았	-10.1802
혈	-10.1809
켜	-10.1813
빨리	-10.1813
♥♥♥	-10.1816
무섭	-10.1819
▁뽑	-10.1819
지가	-10.1821
▁그저그런	-10.1827
▁했으면	-10.1827
하려	-10.1833
랬	-10.1835
▁하는게	-10.1838
▁기독교	-10.1838
▁뜨	-10.1842
▁주기도	-10.1851
▁먼가	-10.1855
봤어요	-10.1855
▁몰입도가	-10.1856
▁보자	-10.1858
▁식상	-10.1859
▁죽어	-10.1859
거같아요	-10.187
▁O	-10.187
▁아까웠다	-10.1872
또한	-10.1874
▁그자체	-10.1881
층	-10.1887
▁어렵다	-10.1895
보다도	-10.1896
지마	-10.1896
대가	-10.1898
▁보다니	-10.1898
▁한번도	-10.1899
▁러시아	-10.1899
▁유일하게	-10.1899
▁반대	-10.1899
돋	-10.1901
절대	-10.1903
▁떨어지고	-10.1907
▁아름답게	-10.1908
▁아니야	-10.1909
▁보기에는	-10.1915
▁모를	-10.1916
후회	-10.1917
▁상대	-10.1921
▁상처	-10.1925
트리	-10.1929
▁엄	-10.1932
▁줄수	-10.1935
스토리도	-10.1937
되었다	-10.1938
됬	-10.1938
보니까	-10.1939
▁돋보이는	-10.1943
▁좋겠네요	-10.1945
▁반전을	-10.1948
▁놈	-10.1948
▁불편	-10.1949
▁하나로	-10.195
▁다운받아	-10.1951
슈	-10.1952
▁많은데	-10.1957
왔다	-10.1958
졸	-10.1964
▁알수	-10.1978
해야지	-10.1978
▁부분도	-10.1979
▁놓고	-10.198
▁요리	-10.1982
거면	-10.1986
▁가벼운	-10.199
생겼	-10.199
▁동시에	-10.1991
▁역사를	-10.1991
영화인데	-10.1993
▁클	-10.1995
▁봤을까	-10.1997
▁교훈을	-10.1997
하는것	-10.1998
식이	-10.2002
▁이것	-10.2004
느라	-10.2004
▁살리	-10.2006
▁내용과	-10.2006
▁멋있	-10.2009
▁영상과	-10.2009
▁인상적	-10.2009
▁케이블에서	-10.2014
로만	-10.2016
▁옥	-10.2018
로운	-10.2027
▁예쁘다	-10.2027
▁누	-10.2029
▁보지마	-10.2035
▁결과	-10.2036
▁당신은	-10.2036
▁가면	-10.2036
▁등장인물	-10.2037
▁소설을	-10.2037
본영화	-10.2037
▁봤네	-10.2038
했다고	-10.2038
▁넘게	-10.2046
▁낳	-10.2048
찾	-10.2056
도대체	-10.2057
이죠	-10.206
▁갔	-10.2065
▁이래	-10.2067
▁그만큼	-10.207
▁재미로	-10.2071
▁해피엔딩	-10.2072
콘	-10.2075
▁쥐	-10.2079
▁톰	-10.208
▁배트맨	-10.2082
▁충분	-10.2091
▁답이	-10.2092
▁예능	-10.2095
이었던	-10.2096
인건	-10.2096
픈	-10.2097
▁집중해서	-10.21
▁어느정도	-10.2101
▁60	-10.2106
톤	-10.2107
▁원작에	-10.2108
쓰고	-10.2111
▁낮다	-10.2111
▁낮네	-10.2112
지루함	-10.2114
▁생각으로	-10.2115
럽	-10.2116
▁명작을	-10.2118
..........	-10.2126
0%	-10.2128
▁뭐하나	-10.2131
헌	-10.2133
더라면	-10.2136
었고	-10.2137
▁본지	-10.2139
▁불편한	-10.2149
▁시리즈는	-10.215
폭	-10.216
z	-10.2174
ᅥ	-10.2174
▁교과서	-10.2174
▁꼬마	-10.2175
▁놀라운	-10.2176
▁로코	-10.2178
▁들고	-10.2181
▁러닝타임	-10.2182
▁ᄀ	-10.2182
▁검색	-10.2182
받았	-10.2183
팀	-10.2184
▁괜찮음	-10.2184
큰	-10.2185
걍	-10.2185
갑니다	-10.2186
헤	-10.2188
▁그립다	-10.2198
기까지	-10.2199
조금	-10.2201
▁생활	-10.2203
억지	-10.2203
▁클레멘타인	-10.2204
▁짜집기	-10.2204
▁어색하고	-10.2205
▁당연히	-10.2206
▁낮지	-10.221
▁인물들	-10.221
다는게	-10.2211
▁아니지	-10.2214
▁행	-10.2216
스의	-10.2216
▁시간가는줄	-10.2223
스터	-10.223
▁보다는	-10.2231
▁할아버지	-10.2244
쟁이	-10.2244
▁느낌의	-10.2248
감을	-10.2254
이즈	-10.2254
나가는	-10.2262
▁많은걸	-10.2265
▁처음에는	-10.2272
구성	-10.2272
볼만	-10.2274
공포영화	-10.2275
시길	-10.2276
▁있다니	-10.2278
▁궁금하다	-10.2279
▁나에겐	-10.228
▁또다른	-10.2281
온다	-10.2282
포스터	-10.2282
▁내가본	-10.2283
▁승리	-10.2283
▁확인	-10.2283
답답	-10.2291
▁설득력	-10.2296
▁장국영	-10.2303
▁가수	-10.2304
▁아류작	-10.2307
▁블랙	-10.2307
끼리	-10.2309
▁놀랍다	-10.2312
▁난리	-10.2313
몇	-10.2319
냈	-10.2326
▁많았	-10.2327
▁/	-10.2328
▁장면들	-10.2328
▁아쉽지만	-10.2331
인데도	-10.2332
▁스토리의	-10.2337
▁떨	-10.234
주기	-10.2341
▁꽃	-10.2344
▁볼수있는	-10.2345
▁시원	-10.2349
▁하길래	-10.2351
▁옛	-10.2353
▁통쾌	-10.2355
▁됩니다	-10.2355
▁돌아가	-10.2356
친다	-10.2361
닝	-10.2361
▁쓰고	-10.2362
찔	-10.2362
▁플롯	-10.2362
▁유일한	-10.2362
▁애기	-10.2366
붙	-10.2374
▁조니뎁	-10.2384
▁앤	-10.2396
▁모든걸	-10.2398
▁적당히	-10.2399
▁ᄍᄍᄍ	-10.2399
▁명장면	-10.2405
▁재미없어서	-10.2417
▁감동은	-10.2426
▁에이	-10.243
▁영화인	-10.2433
▁낚시	-10.2434
▁방법	-10.2434
큐	-10.2436
씨는	-10.2438
▁부모님	-10.2443
▁여자주인공	-10.2449
▁이야기는	-10.245
▁느꼈	-10.2453
▁잘봤어요	-10.2454
놨	-10.2457
겠습니다	-10.246
▁나름대로	-10.2469
N	-10.247
▁머리가	-10.2475
▁숨겨진	-10.2482
▁이상하고	-10.2483
거같음	-10.2491
▁여주가	-10.2492
▁집중이	-10.2498
▁부부	-10.25
▁재미있어	-10.2501
▁초딩때	-10.2501
이었습니다	-10.2508
었지만	-10.251
보인다	-10.251
▁태어나서	-10.2512
▁재밌어서	-10.2514
ᄋᄋ	-10.2514
▁남네요	-10.2515
▁배경음악	-10.2516
▁끈	-10.2516
▁모른다	-10.2519
ᅲᅮ	-10.252
▁주말	-10.252
▁보고싶	-10.2525
하기만	-10.2532
장르	-10.2535
▁바다	-10.2537
.,.,	-10.2537
▁엔딩이	-10.2539
▁맞지	-10.2539
▁그랬	-10.2541
▁당신	-10.2549
▁엄마가	-10.2552
▁디테일	-10.2553
한것	-10.2553
▁내생에	-10.2554
▁착각	-10.2554
▁디워	-10.2557
▁알았	-10.2558
보는게	-10.2558
▁일부러	-10.2559
19	-10.2559
이해	-10.2559
▁끝에	-10.2563
▁이딴걸	-10.2567
▁섹시	-10.2569
▁해리포터	-10.2571
▁인도	-10.2574
▁있네	-10.2578
▁받은	-10.2579
▁뱀파이어	-10.2579
▁독특	-10.2581
▁만들수	-10.2583
▁안나오	-10.2585
▁주제가	-10.2587
▁케릭터	-10.2587
목소리	-10.2589
!!!!!!!!!!!!!!!!	-10.259
▁임팩트	-10.259
딩	-10.2591
..^^	-10.2594
▁의문	-10.2602
▁안맞는	-10.2602
▁이상의	-10.2606
수도	-10.2606
▁벗	-10.2612
▁영화화	-10.2614
안됨	-10.2615
▁여주인공이	-10.262
꿀잼	-10.2625
에대해	-10.2629
▁찾는	-10.2629
짜증	-10.2636
▁아까운영화	-10.264
▁내게	-10.264
▁과정	-10.2642
▁봤을	-10.2642
거죠	-10.2643
▁해주	-10.2644
▁맹	-10.2646
▁울컥	-10.2646
ar	-10.2648
겠어요	-10.265
괜찮	-10.2655
▁인내심	-10.2656
재밌어	-10.2656
나온다	-10.2657
▁멋있는	-10.2657
▁여러번	-10.2657
이유	-10.2662
▁싶어요	-10.2667
▁언니	-10.2668
▁실력	-10.267
▁^	-10.2671
쓰레기영화	-10.2673
▁높아서	-10.2674
▁철학	-10.268
▁지루하	-10.268
▁승	-10.2684
▁하늘	-10.2687
▁시청자	-10.2688
▁개인	-10.269
▁선물	-10.2692
▁어이없	-10.2692
▁거북	-10.2694
▁어이	-10.2696
일듯	-10.2699
▁사고	-10.2702
▁할말	-10.2713
▁잼있음	-10.2717
▁뭐니	-10.2718
▁약간의	-10.2728
이런영화	-10.2734
▁친구가	-10.2735
▁코미디영화	-10.2736
하지마라	-10.2736
▁시간아깝다	-10.2738
▁보내	-10.2739
▁한편의	-10.2739
▁짝이	-10.2747
▁주윤발	-10.2749
▁반드시	-10.2749
당한	-10.2749
▁귀여워	-10.2751
▁연출은	-10.2752
않다	-10.2753
▁진부	-10.2755
▁잊	-10.276
봣	-10.2761
▁떨어지	-10.2762
웠다	-10.277
▁들어가	-10.277
▁꽤나	-10.2775
▁영환데	-10.2776
▁설정이	-10.2778
▁이소룡	-10.278
▁틀어	-10.278
▁매일	-10.2782
냈다	-10.2782
▁컴퓨터	-10.2783
▁삶이	-10.2784
▁유치해	-10.2785
▁심형래	-10.2786
▁빵	-10.2788
▁포스터가	-10.279
▁몰랐	-10.2795
▁어른이	-10.2798
초반	-10.2803
▁헛	-10.2805
▁음식	-10.2806
▁똑같	-10.2812
▁재밋어요	-10.2819
▁짜증이	-10.2819
▁최고로	-10.2821
▁빌	-10.2824
▁잔인	-10.2824
▁마음으로	-10.2825
▁소재와	-10.2829
좋았다	-10.283
▁갑니다	-10.2839
▁공감할	-10.2839
지도않고	-10.2846
▁않아서	-10.2847
곳	-10.2849
▁판단	-10.2853
▁삼류영화	-10.2853
▁맛이	-10.2853
▁책을	-10.2854
▁짜증만	-10.2858
학년	-10.2862
▁매니아	-10.2862
갓	-10.2874
쓸	-10.2875
L	-10.2876
▁인터넷	-10.2877
캐스팅	-10.2877
려나	-10.2877
시나리오	-10.2878
▁망친	-10.2879
▁발상	-10.2884
었을	-10.2884
극장에서	-10.2885
냐고	-10.2887
▁몇번	-10.2888
언제	-10.289
▁본게	-10.2891
▁뒤에	-10.2892
하실	-10.2893
겠네요	-10.2897
▁보았는데	-10.29
▁아깝고	-10.29
▁장면도	-10.2901
부분이	-10.2905
멜로	-10.2906
▁같고	-10.2909
▁한번쯤	-10.2912
▁미소	-10.2917
사가	-10.2929
▁이해를	-10.2931
줘야	-10.2938
육	-10.2941
^-^	-10.2948
▁로버트	-10.2948
당시	-10.2953
▁첨엔	-10.2956
집니다	-10.296
게임	-10.2961
▁강렬한	-10.2964
▁제목만	-10.2967
▁허술한	-10.297
몽	-10.2971
▁dvd	-10.2971
▁죽이	-10.2972
▁전설	-10.2973
▁비슷	-10.2974
▁맘	-10.2974
▁아쉬움이	-10.2976
`	-10.2976
▁쓸데없이	-10.2977
▁적어도	-10.2979
꿈	-10.2981
▁끼	-10.2985
버려	-10.2985
▁최고의영화	-10.2987
▁사운드	-10.2988
▁이보다	-10.2989
화이팅	-10.2989
▁얼마	-10.2997
▁영화인가	-10.2999
먹는	-10.3002
▁멍	-10.3005
▁봐도봐도	-10.3007
▁순수함	-10.3015
▁별로고	-10.3018
▁샘	-10.3025
▁짜증남	-10.3025
있던	-10.3027
▁혼	-10.3029
▁f	-10.3032
▁어쩔수	-10.3032
야한다	-10.3032
▁나오네	-10.3035
도안	-10.3036
▁퇴	-10.3037
▁본거	-10.3042
▁얼굴이	-10.3043
하니까	-10.3046
▁리얼리티	-10.3049
적은	-10.3054
▁단순히	-10.3055
▁서양	-10.3056
번은	-10.3056
▁가족이	-10.3058
▁그야말로	-10.3059
▁배우들은	-10.3063
주연	-10.3063
▁연인	-10.3063
▁아니라고	-10.3066
▁낙	-10.3067
낚	-10.3072
▁이런영화는	-10.3074
▁제니퍼	-10.3075
▁좋지	-10.3078
되었	-10.3078
▁봐야하는	-10.3079
긴장감	-10.3086
▁액션을	-10.3088
st	-10.309
▁오랫만에	-10.3091
▁터미네이터	-10.3095
▁적당한	-10.3095
여주	-10.3103
▁알겠다	-10.3104
▁망치	-10.3105
▁걱정	-10.3107
▁ᄏᄏᄏᄏᄏᄏᄏ	-10.3111
짱짱	-10.3112
▁수작이다	-10.3113
▁하네	-10.3116
재미있게	-10.3119
▁탈출	-10.3119
▁아우	-10.3119
되면	-10.3122
▁실수	-10.3125
ᅮᅲ	-10.3127
100	-10.3135
▁찌	-10.3136
▁잇	-10.3137
▁안습	-10.3149
▁호기심	-10.3151
▁잔잔하게	-10.3155
▁헤어	-10.3156
▁인생에	-10.3164
▁다시보니	-10.3165
만들었	-10.3167
▁안나	-10.3174
않음	-10.3181
▁창	-10.3181
허접	-10.3184
▁다르게	-10.3185
▁어른들	-10.3186
F	-10.3187
빛	-10.3188
▁떨어짐	-10.3189
분위기	-10.3191
▁안간다	-10.3193
▁배경이	-10.3194
▁진수	-10.3195
모르	-10.3196
▁본인	-10.3196
▁웃으면서	-10.3197
▁맞춰	-10.3204
▁귀엽다	-10.3205
마음	-10.3209
는듯	-10.3213
늘	-10.3214
▁F	-10.3216
▁싶을	-10.3217
▁지켜	-10.3219
차이	-10.3219
▁집착	-10.3222
▁혹시	-10.3226
하진	-10.3227
▁으리	-10.3237
▁불쌍한	-10.3244
▁없었음	-10.3245
오르	-10.3247
▁아무도	-10.3248
▁꾸	-10.3249
▁박중훈	-10.3254
▁실험	-10.3255
▁you	-10.3258
▁남기	-10.3266
▁먹는	-10.3271
▁운명	-10.3278
▁봤다면	-10.3284
▁잘하는	-10.3284
▁볼수있	-10.3288
▁가족의	-10.3292
불쌍	-10.3298
▁흐르는	-10.3307
이영화	-10.3307
▁필	-10.3309
▁대통령	-10.331
버릴	-10.3313
있지	-10.3314
▁곧	-10.3316
▁하아	-10.3316
▁재미있을	-10.3317
됐	-10.3327
▁절정	-10.3327
▁L	-10.3328
▁연기자	-10.3332
이여	-10.3333
▁전쟁의	-10.3335
▁오락영화	-10.334
▁믿을	-10.3343
▁최강	-10.3347
▁북	-10.3353
소설	-10.3354
좋은영화	-10.3357
▁=	-10.3357
잇는	-10.3358
▁희대의	-10.3358
▁제이슨	-10.3358
▁부르	-10.3359
▁만약	-10.3364
▁전체적인	-10.3364
▁희망을	-10.3365
▁영화라는	-10.3369
▁가득한	-10.3369
개그	-10.3369
줘서	-10.3369
▁감독을	-10.3371
영화입니다	-10.3375
▁홍상수	-10.338
▁호구	-10.338
▁궁금해서	-10.3381
▁선생님	-10.3382
▁액션과	-10.3387
▁본건데	-10.3389
받는	-10.3393
▁히어로	-10.3395
미국	-10.3397
▁그동안	-10.3398
장면은	-10.3399
드만	-10.3402
점정도	-10.3404
▁다신	-10.3405
털	-10.3407
▁성격	-10.3415
재미도	-10.3415
넣	-10.3416
▁읽고	-10.3417
▁영혼	-10.3418
▁하다가	-10.3422
▁사람들에게	-10.3427
르는	-10.343
몰입	-10.3437
맘	-10.3439
따위	-10.3445
▁되네요	-10.3445
▁사실을	-10.3445
▁있다고	-10.3446
▁영화인지	-10.3446
▁장면을	-10.3453
▁거장	-10.3455
▁레이	-10.3457
▁잼잇	-10.3457
빡	-10.346
아직도	-10.346
꾼	-10.3461
▁할리우드	-10.3463
였나	-10.3464
▁도무지	-10.3464
▁인형	-10.3467
▁분들이	-10.3467
▁울리는	-10.347
▁이토록	-10.3471
▁잤다	-10.3476
▁반담	-10.3477
▁서울	-10.3477
▁생각난다	-10.3478
▁영상미가	-10.3479
틴	-10.3481
▁현실과	-10.3482
▁배우도	-10.3488
▁혹시나	-10.3489
▁시대에	-10.3489
▁브	-10.349
▁시나리오가	-10.3492
▁썼	-10.3499
▁멋지고	-10.35
▁여자는	-10.3502
류영화	-10.3502
둥	-10.3502
▁찍는	-10.3505
었네요	-10.3507
▁폭풍	-10.3509
못하고	-10.3512
▁샤	-10.3513
▁어처구니	-10.3516
▁타고	-10.3516
답게	-10.3516
▁없게	-10.3518
관람	-10.352
이후	-10.3521
하거나	-10.3521
▁사투리	-10.3524
▁잊고	-10.3527
끌	-10.353
▁안에	-10.3531
▁읽어	-10.3532
할수있	-10.3532
▁섬	-10.3542
▁사랑해	-10.3543
▁이름이	-10.3544
사를	-10.3546
re	-10.3546
분을	-10.3547
▁줬	-10.3549
▁짜증나고	-10.3549
ᅮᅮᅮ	-10.355
▁없나요	-10.3552
주제	-10.3558
검	-10.3559
웃기	-10.3564
엽	-10.3567
▁왤케	-10.357
▁of	-10.357
▁내면	-10.3571
▁보러	-10.3572
▁담배	-10.3574
지네요	-10.3575
▁나랑	-10.3576
에서의	-10.3579
▁아이들과	-10.3579
▁사람도	-10.3581
▁독일	-10.3583
정이	-10.3583
▁말아야	-10.3588
뻔한	-10.3589
▁아냐	-10.3592
아들	-10.3596
고싶은	-10.3597
▁황당한	-10.3603
할만한	-10.3604
an	-10.3604
▁무섭지	-10.3615
▁쿠	-10.3618
푸	-10.3623
맥	-10.3623
▁쉽지	-10.3624
▁이뻐서	-10.3626
내용은	-10.3627
▁유덕화	-10.3628
있지만	-10.3634
▁보게된	-10.3637
▁모르겠네요	-10.3637
▁무시	-10.3647
▁재미없을	-10.3647
왔는데	-10.3648
같고	-10.3648
▁세상이	-10.3651
▁아들이	-10.3651
오브	-10.3656
▁지겹다	-10.3658
^^*	-10.366
중에서	-10.3663
인들	-10.3666
하시길	-10.3668
겹	-10.3669
▁영화였음	-10.3669
자고	-10.3671
객	-10.3672
▁존경	-10.3673
▁떼	-10.3675
어색	-10.3677
▁만화책	-10.368
▁믿	-10.3681
▁괜찮았는데	-10.3682
하지말고	-10.3684
▁가치	-10.369
▁줍니다	-10.3692
▁개노잼	-10.3693
▁줘야	-10.3693
해주고	-10.3702
▁빨갱이	-10.3703
▁옷	-10.3705
▁볼만했다	-10.3716
▁배우는	-10.3716
▁제외	-10.372
▁기대이상	-10.372
▁반전에	-10.372
▁잼없	-10.3721
▁여러분	-10.3723
흥	-10.3724
극장	-10.3725
폰	-10.373
▁인생이	-10.3731
▁조절	-10.3732
이었는데	-10.3747
000	-10.3748
▁뭥미	-10.3748
문화	-10.375
▁정도면	-10.3751
같은영화	-10.3755
▁이름을	-10.3755
▁한국영화의	-10.3757
▁재밋음	-10.3758
혼자	-10.3763
▁잡아	-10.3771
▁앞에	-10.3771
갈수록	-10.3774
▁2000	-10.3775
▁예쁘	-10.3775
▁작품입니다	-10.3781
여운이	-10.3782
▁심심	-10.3784
▁안봐도	-10.3785
▁듭니다	-10.3786
▁실화를	-10.3786
▁답답함	-10.3788
▁명대사	-10.3788
웃겨	-10.3789
▁그림체	-10.3799
▁무엇인가	-10.3799
▁싫	-10.3799
▁울면서	-10.3801
햇는데	-10.3802
없는영화	-10.3802
▁잘못된	-10.3804
신이	-10.3804
긴하지만	-10.3805
▁ᄃᄃᄃ	-10.3807
나왔	-10.3808
▁나레이션	-10.3809
▁사랑해요	-10.3809
▁전개와	-10.3812
밤	-10.3813
▁절	-10.3814
▁하정우	-10.3815
스토리가	-10.3819
▁액션신	-10.3819
~~^^	-10.3821
▁받고	-10.3828
▁관점	-10.3829
▁평균	-10.3831
▁영화라니	-10.3832
▁생에	-10.3842
▁다시보고	-10.3843
고요	-10.3844
P	-10.3844
칼	-10.3846
코믹	-10.3847
▁일반	-10.3848
그럼	-10.3851
->	-10.3853
▁괜찮고	-10.3853
▁갖	-10.3857
아깝	-10.3857
▁액션씬	-10.3859
아무리	-10.386
▁축구	-10.3866
어지는	-10.3866
럼	-10.387
▁한개도	-10.387
▁폭발	-10.3873
있어요	-10.3874
▁한국의	-10.3884
▁담은	-10.3885
▁재미없다고	-10.3885
제대로	-10.3886
▁가고	-10.3889
▁나이가	-10.389
럭	-10.3895
▁응	-10.3895
▁고뇌	-10.3896
눌	-10.3896
수없는	-10.3897
삶	-10.3898
▁각색	-10.3899
답니다	-10.39
▁것에	-10.3905
▁마약	-10.3906
▁진지한	-10.3906
틱	-10.3909
▁상어	-10.3909
그러나	-10.391
▁재밌었던	-10.3913
이딴	-10.3913
▁최고봉	-10.3917
학교	-10.3919
▁않았던	-10.3919
▁아놀드	-10.3922
▁아깝네요	-10.3922
▁무언가	-10.3922
▁재미있는데	-10.3924
▁쓸데없는	-10.3925
분만에	-10.3926
▁기대이하	-10.393
▁야한	-10.3932
▁공짜로	-10.3939
▁이해할수	-10.3939
▁빛	-10.394
▁베드신	-10.394
폐	-10.3942
▁넣	-10.3942
▁착	-10.3943
▁영원한	-10.3944
▁겨울	-10.3945
배우가	-10.3946
▁뜬금없는	-10.3948
▁우뢰매	-10.3949
보구	-10.395
▁스릴도	-10.3952
▁G	-10.3953
▁자극적인	-10.3954
요소	-10.3955
보긴	-10.3956
▁찍고	-10.3959
벨	-10.3959
▁민망	-10.3962
▁싶었	-10.3962
▁오브	-10.3964
았던	-10.3967
굳	-10.397
잃	-10.397
▁아니잖아	-10.3975
이긴	-10.3978
▁인상적이	-10.3982
▁내일	-10.3982
보고싶다	-10.3983
원이	-10.3987
▁일본은	-10.3988
받은	-10.3988
▁나네요	-10.3992
▁아깝네	-10.3995
▁팀	-10.3995
▁없으면	-10.3997
▁진지	-10.3998
뭔	-10.4
출연	-10.4005
▁파괴	-10.4006
▁드디어	-10.4007
▁흑백	-10.4008
▁사랑한다	-10.401
할뿐	-10.4014
▁믿고보는	-10.4015
▁어쩌	-10.4015
분동안	-10.4018
존나	-10.4022
▁적절한	-10.4023
▁우연	-10.4023
부터가	-10.4025
▁보아	-10.4028
▁포인트	-10.4032
▁최소한	-10.4033
X	-10.4035
▁하지원	-10.4038
드립	-10.404
▁기대없이	-10.4042
▁브루스	-10.4043
▁사랑합니다	-10.4046
▁시간만	-10.4048
▁화나	-10.4051
워서	-10.4067
▁정신병자	-10.4069
▁빛을	-10.407
임을	-10.4072
신고	-10.4073
앤	-10.4075
▁생각도	-10.4076
▁찍었	-10.4078
▁대신	-10.4079
텐	-10.4081
▁버리	-10.4082
▁좋네	-10.4083
낫	-10.4084
▁불안	-10.4085
짜리	-10.4088
▁때려	-10.4091
▁늘어	-10.4091
어진	-10.4091
였지	-10.4095
▁환경	-10.4095
▁충	-10.4096
▁주연배우	-10.4097
▁웬	-10.4098
▁신경	-10.4103
▁무리	-10.4111
못하는	-10.4113
▁충격적	-10.4118
▁이병헌	-10.4119
룩	-10.4119
▁깊게	-10.4119
▁웰메이드	-10.4119
▁언제봐도	-10.4124
뭐냐	-10.4125
▁안볼	-10.4131
▁괴	-10.4132
분의	-10.4136
보이는	-10.4136
것같은데	-10.4137
▁범	-10.4138
▁보이지	-10.4139
▁강간	-10.4139
더라도	-10.4143
▁이드라마	-10.4147
▁예술영화	-10.4147
▁어쩌면	-10.4151
▁왜곡	-10.4156
▁아까울	-10.4159
▁시간에	-10.4164
▁기다려	-10.4166
연기는	-10.4171
..1	-10.4172
▁갠적으로	-10.4174
▁탄탄하고	-10.4175
▁사용	-10.4178
▁즐	-10.4183
▁말자	-10.4183
촌	-10.4185
놈이	-10.4186
▁한다는	-10.4187
자를	-10.4187
주면	-10.4187
▁흘러	-10.4188
▁아진짜	-10.4189
과는	-10.419
헐	-10.4192
평론가	-10.4193
었나	-10.4193
▁나오는데	-10.4201
느끼	-10.4206
▁응원	-10.4207
들에	-10.421
80	-10.421
같아	-10.4224
▁결론은	-10.4226
▁포스터에	-10.4226
엑	-10.4228
긋	-10.4233
뚱	-10.4233
▁오프닝	-10.4233
▁재개봉	-10.4235
▁전반적으로	-10.4239
▁알려	-10.4245
▁풋풋한	-10.4246
▁어울리지	-10.4248
▁그것이	-10.4248
▁마지막이	-10.4249
영이	-10.425
▁땜에	-10.4252
▁테러	-10.4252
만큼이나	-10.4256
▁매미	-10.4261
▁점수는	-10.4269
▁안본다	-10.4269
▁짐캐리	-10.4269
▁시작부터	-10.427
▁이도저도	-10.4273
▁봐야지	-10.4275
▁빛나는	-10.4277
하겠	-10.428
▁p	-10.4281
▁귀여움	-10.4286
처리	-10.4287
▁내용에	-10.4287
▁누군지	-10.4288
수는	-10.4291
▁매력적이	-10.4293
글자	-10.4293
님들	-10.4298
할것	-10.4298
▁컨셉	-10.4301
▁잘한다	-10.4301
씀	-10.4302
▁포스터만	-10.4303
▁매력에	-10.4305
주지	-10.4307
▁육	-10.4307
▁X	-10.4307
▁따지	-10.4308
가며	-10.431
▁갖다	-10.4313
점이상	-10.4314
었지	-10.4314
▁갓	-10.4317
재미있어요	-10.4321
나도	-10.4325
▁올려	-10.4326
껴	-10.433
배우들이	-10.4335
▁잘만들었다	-10.4343
▁푸	-10.4343
▁안본	-10.4345
▁만난	-10.4347
▁정우성	-10.4348
▁역겨운	-10.4348
▁생긴	-10.4349
▁재미있었습니다	-10.4352
▁진지하게	-10.4356
▁담긴	-10.4357
있을	-10.4357
▁만들었을까	-10.4358
▁기가	-10.436
▁첨부터	-10.4362
▁치유	-10.4364
▁없냐	-10.4366
▁조선	-10.4367
축	-10.4373
높은	-10.4375
▁언	-10.4375
▁초등학교	-10.4376
관객	-10.4382
▁지키	-10.4384
▁의지	-10.4385
▁거기다	-10.4385
말도	-10.4394
▁실망이	-10.4395
자체	-10.4398
▁느껴	-10.4399
▁수입	-10.44
▁즐기	-10.4403
스키	-10.4403
▁가능한	-10.4403
지지	-10.4407
했을까	-10.4408
▁돈내고	-10.4417
▁아이디어	-10.4417
▁밤에	-10.4418
▁동네	-10.4418
특	-10.4419
▁왔	-10.4419
▁그당시	-10.4422
점부터	-10.4426
춤	-10.4428
다큐	-10.443
닌	-10.443
잼있	-10.4439
▁기대한	-10.4439
시간동안	-10.4441
전혀	-10.4445
▁오랜만	-10.4447
▁못보겠다	-10.4451
는거야	-10.4454
협	-10.4455
법한	-10.4458
▁인생은	-10.4458
▁미쳤	-10.4459
납	-10.4463
▁싶었다	-10.4463
▁내생애	-10.4464
▁그것을	-10.4466
▁무겁	-10.4467
▁은근히	-10.4467
▁엄청나게	-10.4469
▁개콘	-10.4473
▁했음	-10.4476
▁살인마	-10.4476
▁유발	-10.4478
없네요	-10.4479
~~!!	-10.4479
▁억지감동	-10.4481
▁아픔	-10.4482
▁심한	-10.4484
바라	-10.4489
▁친구랑	-10.4498
▁와닿	-10.4499
에다가	-10.4499
▁H	-10.4502
★	-10.4503
그렇게	-10.4504
나름	-10.4507
캐	-10.451
▁여름	-10.4512
자식	-10.4514
▁재난	-10.4515
▁아역	-10.4516
역사	-10.4519
느낌이	-10.4519
▁검	-10.4523
▁임창정	-10.4524
는구나	-10.4526
▁자동차	-10.4527
흠	-10.4529
제작	-10.4537
류의	-10.4541
▁시대의	-10.4546
▁뛰어나	-10.4546
▁콩	-10.4547
우리나라	-10.4551
▁책으로	-10.4559
행복	-10.4561
▁감독과	-10.4562
▁정도가	-10.4564
▁좋다고	-10.4565
편까지	-10.4565
▁동양	-10.4566
▁아동	-10.4568
▁웃는	-10.4572
▁잠이	-10.4576
편에서	-10.4578
▁몰아	-10.458
하기에	-10.4581
▁이럴	-10.4582
▁늦게	-10.4582
▁Good	-10.4582
▁둘째치고	-10.4582
▁왠만한	-10.4584
▁요새	-10.4586
▁장난하냐	-10.4586
▁속았다	-10.4586
▁나무	-10.4587
아야	-10.4588
지나	-10.4589
가면서	-10.459
랜드	-10.4592
▁재미있었음	-10.4596
▁만들어낸	-10.4599
▁소중함을	-10.4599
▁이런류의	-10.4601
물을	-10.4602
장이	-10.4602
▁챙겨	-10.4603
▁끌고	-10.4606
탁	-10.4608
▁박진감	-10.4608
보여	-10.4613
▁스티븐	-10.4613
▁죽고	-10.4613
▁좋을듯	-10.4614
▁다행이다	-10.4621
힘들	-10.4623
▁이번에	-10.4626
▁봤는데도	-10.4627
▁한국판	-10.4628
▁유치해서	-10.4632
영화라	-10.4632
15	-10.4635
▁소름돋	-10.4635
▁양아치	-10.4636
▁시작해서	-10.4639
▁이해불가	-10.4639
라는걸	-10.4642
▁갔다	-10.4646
▁돼지	-10.4651
▁초반부	-10.4652
▁무섭고	-10.4654
▁인간은	-10.4655
▁마지막회	-10.4661
화가	-10.4661
례	-10.4665
컷	-10.4668
▁이기	-10.467
싸움	-10.4671
▁안맞	-10.4672
▁어디로	-10.4673
하던데	-10.4673
▁생각나	-10.4673
빙	-10.4675
▁친구들	-10.4677
▁무대	-10.4678
미가	-10.468
▁끊	-10.468
되네요	-10.4681
기전에	-10.4683
웨이	-10.4684
▁최소	-10.4686
광구	-10.4689
▁형제	-10.4696
새끼들	-10.4698
▁이용	-10.4699
딘	-10.4701
▁가까운	-10.4701
▁명불허전	-10.4701
▁깡패	-10.4701
▁무거운	-10.4701
덩어리	-10.4701
▁미국의	-10.4703
▁로빈	-10.4703
90	-10.4707
역할	-10.4708
▁힘을	-10.4711
▁보시면	-10.4711
▁남성	-10.4715
▁배신	-10.4718
하는영화	-10.4718
▁폐지	-10.4718
▁잠시	-10.4724
떨	-10.4727
▁송강호	-10.4729
▁현실감	-10.4731
▁절로	-10.4735
▁미스	-10.4738
다니는	-10.474
▁괜찮게	-10.4741
▁말하고자	-10.4743
애들이	-10.4748
▁인류	-10.475
in	-10.4753
▁씹	-10.4761
할수있는	-10.4764
▁도시	-10.4767
시키고	-10.4775
제일	-10.4779
▁뭐라고	-10.4781
▁흘러가는	-10.4782
▁참나	-10.4785
▁만들어서	-10.4785
▁100%	-10.4786
▁않은데	-10.4788
▁단편	-10.4792
▁연출력이	-10.4794
포인트	-10.4794
개인적으로	-10.4794
▁말투	-10.4795
수있	-10.4801
▁사람이라면	-10.4802
▁탓	-10.4802
▁망할	-10.4804
빌	-10.4807
었네	-10.4809
셔서	-10.4815
극히	-10.4817
픽	-10.4818
렷	-10.4818
▁어두운	-10.4821
▁명복을	-10.4821
▁비호감	-10.4821
▁허무한	-10.4821
▁스타뎀	-10.4821
▁마지막장면	-10.4823
뭐야	-10.4824
▁다루	-10.4827
▁거품	-10.4831
줬다	-10.4839
쳤다	-10.484
▁제목을	-10.4842
▁보는거	-10.4843
▁마지막엔	-10.4845
드리	-10.4846
▁날아	-10.4855
▁의도가	-10.4857
▁만점에	-10.4858
싫어	-10.4858
▁보라	-10.4858
11	-10.4863
W	-10.4866
상태	-10.487
▁인상적인	-10.4872
▁봉	-10.4876
있으면	-10.4882
▁묻어	-10.4882
...........	-10.4886
것보다	-10.489
사실	-10.4893
▁조카	-10.4895
▁찾아서	-10.4899
잖아요	-10.49
▁막판	-10.4907
▁이야	-10.4908
비가	-10.491
영화도	-10.4914
뭐지	-10.4916
지요	-10.4916
▁나와야	-10.4916
엄청	-10.4918
▁네티즌	-10.4919
둔	-10.4919
찡	-10.492
▁돈아까워	-10.4921
▁자아	-10.4926
▁아프다	-10.4929
라스	-10.4932
▁대단하	-10.4934
압	-10.4936
▁빅	-10.4938
▁감흥	-10.4941
겼	-10.4941
칙	-10.4941
▁만드	-10.4942
▁느낌이다	-10.4942
。	-10.4943
U	-10.4943
▁놀랐다	-10.4943
▁애초에	-10.4943
▁생기	-10.4944
▁잃은	-10.4945
▁보라고	-10.4945
▁살리지	-10.4946
▁피해	-10.4949
▁궁	-10.4949
▁괜찮았음	-10.495
▁곰	-10.4951
안되는	-10.4956
▁유쾌하게	-10.4957
▁기적	-10.496
▁놀란	-10.4966
아니면	-10.4967
▁빵빵	-10.4972
▁느낌은	-10.4973
▁낫	-10.4974
것같	-10.4974
타고	-10.4976
능력	-10.4977
▁거지같은	-10.4978
▁땅	-10.4981
▁공감도	-10.4983
스릴	-10.4984
▁특이	-10.4985
▁개성	-10.4985
▁민폐	-10.4992
찾아	-10.4997
▁학생	-10.5004
평가	-10.5004
하기엔	-10.5005
▁목소리가	-10.5006
▁겁	-10.5006
▁각자	-10.5009
▁만들었나	-10.5009
▁방해	-10.5013
▁배경으로	-10.5014
▁짜증나게	-10.5014
▁당신이	-10.5019
당시엔	-10.502
▁이제는	-10.5024
▁분량	-10.5026
▁놀라	-10.5026
▁짐	-10.5027
▁요소가	-10.5037
▁영화네	-10.5042
▁쪽	-10.5043
▁천국	-10.5043
아요	-10.5043
기에는	-10.5043
▁파리	-10.5043
콜	-10.5044
예술	-10.5048
바람	-10.505
▁드림	-10.5051
식으로	-10.5054
▁꼭보세요	-10.5059
년대에	-10.5064
▁불쌍해	-10.5065
닉	-10.5067
▁아무생각없이	-10.5067
▁좋았을텐데	-10.5068
▁만들어라	-10.5069
▁말그대로	-10.5071
▁느끼고	-10.5075
▁신인	-10.5076
▁않았지만	-10.5076
▁볼만합니다	-10.5077
▁이것보단	-10.5078
▁보았던	-10.508
▁느껴지	-10.5083
▁일본의	-10.5083
하셨	-10.5086
▁산만하고	-10.5089
▁아닐	-10.5089
이러	-10.509
it	-10.509
▁비행기	-10.5092
▁가히	-10.5092
▁쩌는	-10.5093
즘	-10.5096
▁교훈도	-10.5098
▁땐	-10.5099
▁순수하고	-10.51
-_-;	-10.51
▁화장실	-10.5103
▁알리	-10.5107
▁한번더	-10.512
▁이만한	-10.5126
▁의상	-10.5129
▁백인	-10.5129
▁생각해보게	-10.5132
▁명연기	-10.5135
▁일본인	-10.5136
재미없어	-10.5137
▁동영상	-10.5137
했을때	-10.5141
란다	-10.5147
▁끝났	-10.515
▁영화예요	-10.5151
▁슬픈영화	-10.5152
▁오글거리는	-10.5152
이어서	-10.516
▁일부	-10.5161
소녀	-10.5166
▁짜리	-10.5168
봤습니다	-10.5169
웃김	-10.517
R	-10.5171
추억	-10.5173
▁희	-10.5179
쾌	-10.5179
룡	-10.5182
▁박수	-10.5186
▁아기	-10.5187
▁가족애	-10.5189
에만	-10.519
핑	-10.5191
▁널	-10.5192
묘	-10.5192
▁어거지	-10.5193
▁느껴졌다	-10.5193
▁향연	-10.5194
▁러브	-10.5194
▁누나	-10.5197
▁싫어하는	-10.5199
▁시시	-10.5199
▁모욕	-10.5199
거에요	-10.52
▁도망	-10.5201
▁알았음	-10.5204
▁묘한	-10.5205
▁믿기지	-10.5206
▁기억나는	-10.5209
편집	-10.5209
▁불쌍하	-10.5211
살인	-10.5213
지루하고	-10.5214
▁영화속	-10.5216
▁특	-10.5216
▁괜찮네요	-10.5216
▁감동적이네요	-10.5217
▁크리스	-10.5224
▁흥	-10.5224
느냐	-10.5225
▁캐릭터들이	-10.5226
▁내용의	-10.5228
▁충격적인	-10.5229
귀신	-10.523
▁모르겠	-10.5231
▁뭐고	-10.5243
맞는	-10.5245
▁나을듯	-10.5246
▁좋아하지만	-10.5248
오래	-10.5249
성우	-10.5253
▁소화	-10.5258
라지만	-10.5258
흑	-10.5259
주기도	-10.5259
▁결론	-10.5261
▁곳	-10.5261
▁유지	-10.5264
▁싶었던	-10.5264
▁범죄자	-10.5265
겠어	-10.5265
▁:)	-10.5266
▁뜬금없이	-10.5267
는거지	-10.5268
▁세월이	-10.527
▁삶과	-10.5271
광고	-10.5271
▁빠져들	-10.5272
▁답답하다	-10.5272
▁보지말	-10.5273
▁들었	-10.5276
었을까	-10.5277
▁보는것	-10.5277
▁속이	-10.5287
▁그들이	-10.5289
부리	-10.5289
빗	-10.5297
▁드라마입니다	-10.5298
굴	-10.5299
▁기대하지	-10.5299
덤	-10.5299
▁ᄌ	-10.5301
경찰	-10.5303
납니다	-10.5305
이예요	-10.5306
쓰는	-10.5308
▁본듯	-10.5309
▁난해	-10.5309
섭	-10.5311
없나	-10.5315
였네요	-10.5315
숭	-10.5318
욤	-10.5318
▁감명깊게	-10.5318
못해	-10.5319
▁안나온다	-10.5324
▁모르지만	-10.5332
티비	-10.5339
▁형편없는	-10.5339
▁슬퍼	-10.5339
▁신선함	-10.5342
안된다	-10.5346
▁욕심	-10.5346
▁어설프다	-10.5348
▁간지	-10.5351
▁주지	-10.5352
으로만	-10.5354
▁제작비가	-10.5357
았음	-10.5358
▁준비	-10.5358
줄은	-10.5364
▁맞추	-10.5368
끝나고	-10.537
▁과학	-10.5371
겁	-10.5371
▁진한	-10.5371
▁말고는	-10.5371
▁심장	-10.5373
타임	-10.5378
▁무서웠	-10.538
▁그렇지만	-10.5395
▁볼려고	-10.5398
에비해	-10.5403
든지	-10.5403
▁끄	-10.5403
▁및	-10.5412
하러	-10.5414
올라	-10.5416
▁미소가	-10.5418
▁ᄒᄒᄒᄒ	-10.5418
▁따위	-10.5418
▁단점	-10.5419
아버지	-10.5421
물론	-10.5421
조아	-10.5422
잖	-10.5428
▁빼곤	-10.5431
몸	-10.5432
▁내돈	-10.5433
칸	-10.5433
▁조연들	-10.5434
K	-10.5435
늙	-10.5436
▁품	-10.5438
▁웃기는	-10.544
만은	-10.5441
하더니	-10.5441
졸작	-10.5442
선택	-10.5443
제가	-10.5444
12	-10.5445
액	-10.5446
▁하이틴	-10.5447
▁좋겠습니다	-10.5451
▁하하	-10.5451
▁듣	-10.5455
없구	-10.5456
▁소통	-10.5461
▁미안하다	-10.5466
▁다운받아서	-10.5466
▁전화	-10.547
▁뒤죽박죽	-10.5473
▁찾기	-10.5474
감독은	-10.5474
장애	-10.5484
▁나루토	-10.5484
▁버리고	-10.549
▁맡은	-10.549
▁배급사	-10.5491
▁이거보다	-10.5493
▁2012	-10.5494
▁신비	-10.5494
여배우	-10.5495
로서는	-10.55
돈주고	-10.55
▁케빈	-10.5503
▁14	-10.5503
▁P	-10.5504
점주	-10.5505
▁자고	-10.5505
후에	-10.5506
▁왔습니다	-10.5508
▁말씀	-10.5508
▁자기가	-10.5509
고싶어	-10.551
알아	-10.5512
▁빠졌	-10.5513
▁재능	-10.5516
▁싶어서	-10.5516
▁과장	-10.5521
▁슬프	-10.5521
▁조금은	-10.5523
▁대부	-10.5525
▁세번	-10.5528
레인	-10.5528
야할	-10.553
▁웃을	-10.5531
▁이상해	-10.5534
▁후에	-10.5534
▁없다고	-10.5535
▁별로였다	-10.5536
보내	-10.5542
였을	-10.5542
▁안나오는	-10.555
▁장난아니	-10.5551
▁어이없다	-10.556
적이다	-10.556
▁더빙이	-10.5562
▁마이	-10.5565
몬	-10.5567
벗	-10.5567
판타지	-10.5569
로맨스	-10.557
결국	-10.5574
▁빕니다	-10.5576
▁시종일관	-10.5576
▁무간도	-10.5576
▁은근	-10.5577
▁박보영	-10.5577
▁블랙코미디	-10.5577
▁쭉	-10.5578
▁4.44	-10.558
▁알았네	-10.5583
▁스포	-10.5583
▁있었으면	-10.5584
▁장면들이	-10.5584
▁안될	-10.5585
▁부족함	-10.5586
▁작가의	-10.5587
▁여배우들	-10.5587
게하는	-10.5588
보려고	-10.559
였다면	-10.5591
▁침	-10.5593
▁멋지게	-10.5599
▁EBS	-10.56
▁뭐하는	-10.56
▁깔끔한	-10.5601
최고다	-10.5604
▁생명	-10.5607
데요	-10.5608
▁요즘은	-10.5608
▁났다	-10.5609
▁어디가	-10.5611
▁대학	-10.5611
너무너무	-10.5613
▁안보는게	-10.5613
▁류승범	-10.5614
50	-10.5615
뿐이다	-10.5615
▁사람에게	-10.5616
▁연기력에	-10.5617
▁역사적	-10.5617
점으로	-10.5618
▁중요	-10.562
▁무섭게	-10.562
▁프랑스영화	-10.5623
보고나서	-10.5628
빠진	-10.5628
같아서	-10.5629
▁쩔어	-10.5632
▁비현실적	-10.5632
▁만든거	-10.5632
▁도데체	-10.5633
▁여전	-10.5634
!!!!!!	-10.5635
▁정도는	-10.5636
▁막장이	-10.5638
▁놓	-10.5643
당신	-10.5644
▁없는게	-10.5644
00	-10.5645
▁내용전개	-10.5645
▁털	-10.5646
▁공포를	-10.5649
▁진짜로	-10.5651
▁환	-10.5654
스러웠	-10.5656
주네	-10.5664
▁의사	-10.5667
▁영화인줄	-10.5674
이하	-10.5676
도좋고	-10.5677
것처럼	-10.5677
▁올라	-10.5679
▁좋앗	-10.5681
▁에효	-10.5682
▁니들	-10.569
적이지	-10.5691
▁캐스팅이	-10.5691
닐	-10.5693
▁일어나	-10.57
찮	-10.5702
쩝	-10.5703
멸	-10.5706
▁스타워즈	-10.5708
됫	-10.5708
▁아마추어	-10.5708
▁즐거움	-10.5708
▁칭찬	-10.5708
▁것만	-10.5708
▁상징	-10.5711
▁마시길	-10.5713
▁삭제	-10.5713
같아요	-10.5713
가장	-10.5713
▁고문	-10.5716
미화	-10.5717
만들어도	-10.5717
허무	-10.5717
▁영상도	-10.5719
▁이별	-10.572
▁말인가	-10.5721
▁당연	-10.5721
▁공유	-10.5725
▁한심하다	-10.5726
▁ᅲᅲᅲᅲ	-10.5727
만을	-10.5732
▁새벽	-10.5733
하고싶다	-10.5739
▁빠져서	-10.5743
점만점에	-10.5743
▁염	-10.5751
▁살다	-10.5751
나보다	-10.5753
▁극중	-10.5753
▁전문	-10.5766
▁나음	-10.5767
▁바닥	-10.5769
▁장애인	-10.5769
인걸	-10.5774
해줄	-10.5778
▁잔인함	-10.5778
▁완	-10.5786
▁돌리	-10.5789
않은	-10.5792
제로	-10.5794
읽	-10.5796
때문	-10.5797
▁이것보다	-10.5799
▁잼있는	-10.5801
▁관심이	-10.5803
▁찌질	-10.5803
▁사람들을	-10.5807
▁기대가	-10.5809
▁쿨	-10.581
▁칠	-10.5811
▁손발	-10.5814
▁잠을	-10.5816
▁감정이입	-10.5817
▁김치	-10.5824
에게는	-10.5826
었어	-10.583
아까운	-10.5831
▁똑같이	-10.5835
꽃	-10.5837
농	-10.5839
비디오	-10.584
시청률	-10.5841
노답	-10.5841
애니메이션	-10.5841
▁닥치고	-10.5841
▁워낙	-10.5841
▁신의	-10.5841
▁바꿔	-10.5842
▁재밌다는	-10.5843
▁풀어낸	-10.5846
웨	-10.5849
▁낫겠다	-10.5851
▁장점	-10.5857
▁디카프리오	-10.5858
합시다	-10.5858
▁관련	-10.5859
▁근래	-10.5859
▁의문이	-10.586
싫다	-10.5861
▁거짓	-10.5862
▁소장하고	-10.5862
▁팬들	-10.5862
▁기다리	-10.5862
▁작화	-10.5865
▁우선	-10.5869
▁행복하게	-10.5872
▁같았다	-10.5874
어이없	-10.588
이랄까	-10.588
할수가	-10.5882
▁사랑스럽다	-10.5882
지말자	-10.5882
▁같지	-10.5883
것같네요	-10.5886
▁절대로	-10.5886
▁깔	-10.5886
애들은	-10.5889
▁것들	-10.589
중국	-10.5892
못한	-10.5893
▁영화라서	-10.5895
▁들게	-10.59
▁조금만	-10.5903
좋네요	-10.5908
▁그리워	-10.5914
▁위로	-10.5919
했었	-10.592
놈들은	-10.5922
▁넘치	-10.5923
▁ᄏᄏᄏᄏᄏᄏᄏᄏ	-10.5924
▁최고네요	-10.5924
▁액션만	-10.5926
▁새끼	-10.5929
만하다	-10.5929
면에서	-10.5933
았어요	-10.5935
▁떡	-10.5937
아라	-10.5943
턴	-10.5948
뭘	-10.5948
▁충분한	-10.595
만듬	-10.5952
쏘	-10.5952
▁입장에서	-10.5955
▁오글오글	-10.5956
여주인공	-10.5957
▁놈들	-10.5958
▁전투	-10.5959
▁개념	-10.5961
와의	-10.5974
▁모든것이	-10.5974
널	-10.5974
▁뭐하자는	-10.5975
▁만화영화	-10.5975
▁선동	-10.5975
컨	-10.5976
닷	-10.5976
곱	-10.5976
▁데이빗	-10.5976
▁바탕으로	-10.5977
충격	-10.5977
떼	-10.5979
▁감동적이에요	-10.598
▁로망	-10.5981
성과	-10.5985
▁지옥	-10.5988
▁화려하	-10.5993
▁실망이다	-10.5993
▁공간	-10.5994
en	-10.6
가면	-10.6
▁독특하고	-10.6001
됐다	-10.6001
▁상황을	-10.6006
잔인	-10.6007
하나하나가	-10.6009
천원	-10.6015
▁원하는	-10.6017
▁아까워서	-10.6018
▁형편없	-10.6018
▁연기하는	-10.6021
▁보기가	-10.6022
▁언젠가	-10.6024
▁않았	-10.6024
▁미스터리	-10.6026
▁뭐임	-10.6028
▁평을	-10.6034
▁소재의	-10.6037
▁감각	-10.6042
▁됐다	-10.6043
▁명작은	-10.6046
▁링	-10.6048
었는지	-10.6048
▁느껴지지	-10.6048
하다고	-10.6053
▁책임	-10.6054
조연	-10.6055
념	-10.6056
▁이상하다	-10.6057
▁우려먹	-10.6057
있네요	-10.6059
▁일반인	-10.606
▁광기	-10.6064
효과	-10.6065
안되고	-10.6067
▁전편보다	-10.6067
▁세상에서	-10.6068
▁인생영화	-10.6068
▁;	-10.6069
잡고	-10.607
▁있었고	-10.6071
돌아	-10.6075
▁무서움	-10.6077
▁재밌게봤어요	-10.6077
▁멋지	-10.6078
▁개봉당시	-10.608
▁최악의영화	-10.6085
▁아무튼	-10.6092
아가	-10.6095
▁남기는	-10.6097
▁끝나서	-10.6101
남주	-10.6101
▁감독도	-10.6106
하군	-10.6108
▁싶습니다	-10.6109
컬	-10.6113
벅	-10.6113
렛	-10.6113
▁유럽	-10.6115
▁부활	-10.6115
▁쉬운	-10.6117
탑	-10.6118
▁센스	-10.6118
맹	-10.6119
멀	-10.612
멋있	-10.612
프로그램	-10.6121
▁뻔하다	-10.6121
뽕	-10.6122
그나마	-10.6123
▁멋져	-10.6124
믿	-10.6124
▁아만다	-10.6125
▁빠지	-10.6126
▁재방	-10.613
대고	-10.613
▁든	-10.613
▁귀여워요	-10.6132
상영	-10.6137
바로	-10.6138
아이들	-10.6142
재밋다	-10.6142
이었어요	-10.6144
▁대결	-10.6145
것만으로도	-10.6146
▁오래전에	-10.6146
마저도	-10.6146
▁심하다	-10.6147
셈	-10.615
▁언제까지	-10.6152
▁전성기	-10.6154
있습니다	-10.6156
▁신하균	-10.6157
▁강동원	-10.6161
▁부분은	-10.6162
▁빠른	-10.6163
▁본격	-10.6165
그저	-10.6167
되게	-10.6169
뻔했다	-10.6171
국민	-10.6172
▁이거보단	-10.6173
해줘서	-10.6174
라는게	-10.6175
▁역겹다	-10.6175
▁읽는	-10.6176
남는	-10.6179
▁&	-10.6179
▁했더니	-10.6181
▁멋있고	-10.6182
방식	-10.6184
▁뛰어넘는	-10.6188
▁혁명	-10.6188
▁스포츠	-10.6191
▁소개	-10.6194
까봐	-10.6196
아까움	-10.6202
좋았	-10.6204
▁부정	-10.6212
▁끝도	-10.6218
▁한시간	-10.6226
▁이루	-10.6227
▁하품	-10.6233
▁맡	-10.6233
▁캐리	-10.6235
▁휘	-10.6235
됩니다	-10.6239
▁직	-10.6239
▁드네요	-10.6241
였구나	-10.6243
▁쏘	-10.6244
▁타임	-10.6247
▁우는	-10.6251
쿵	-10.6251
ᄎ	-10.6252
▁마찬가지	-10.6252
곽	-10.6252
띠	-10.6252
룰	-10.6252
벼	-10.6252
▁수록	-10.6252
<	-10.6253
▁즐겨	-10.6253
▁에라이	-10.6253
▁bad	-10.6253
▁맞다	-10.6254
낫다	-10.6256
▁비록	-10.626
▁믿음	-10.6262
보여주	-10.6266
▁애니는	-10.6267
▁재미있었는데	-10.6268
▁스크린	-10.627
ᄏᄏᄏᄏᄏᄏ	-10.6271
▁천사	-10.6271
▁듣는	-10.6272
▁넘넘	-10.6273
때부터	-10.6273
재밌고	-10.6276
갈때	-10.6277
▁없던	-10.6282
▁알파치노	-10.6285
▁피아노	-10.6285
▁러브라인	-10.6285
▁빠지는	-10.6285
▁16	-10.6287
▁첨이다	-10.6289
지루하다	-10.6297
▁필요없	-10.6298
▁낮네요	-10.6301
▁여신	-10.6304
▁미국식	-10.6305
▁욕먹	-10.6306
였네	-10.6307
▁추천하고	-10.6308
▁is	-10.6309
▁ᄌᄂ	-10.6313
▁외국인	-10.6317
▁직업	-10.6318
▁살았	-10.6322
▁어렵	-10.6324
▁방식	-10.6327
시대에	-10.6328
▁끝날	-10.6331
덕에	-10.6331
▁만들기	-10.6331
▁중년	-10.6333
▁라이언	-10.6333
▁그런거	-10.6338
험	-10.634
점이나	-10.6343
▁귀여웠	-10.6345
▁필요가	-10.6346
▁애정	-10.635
▁재미있었	-10.635
ch	-10.6352
▁관객이	-10.6356
자기	-10.6359
치고는	-10.6359
▁동심	-10.6363
▁익숙	-10.6365
쳐서	-10.6367
▁보겠다	-10.6369
▁m	-10.637
▁역사상	-10.6371
치면	-10.6375
▁괜찮았	-10.6376
▁미쳐	-10.6377
▁시키	-10.6379
▁웃겼	-10.6381
▁헬	-10.6382
▁권력	-10.6382
져요	-10.6387
▁스필버그	-10.6393
▁오그라드는	-10.6393
▁미스캐스팅	-10.6393
▁하도	-10.6395
▁얻어	-10.6396
▁새삼	-10.6397
▁울었어요	-10.64
▁조낸	-10.6401
무시	-10.6402
재미있다	-10.6403
메이	-10.6403
al	-10.6406
어디	-10.6406
▁보여줄	-10.6406
▁사람과	-10.6407
▁살아있는	-10.6408
▁모습에	-10.641
▁흥분	-10.6412
▁있으나	-10.6413
▁캐릭터를	-10.6413
▁기발한	-10.6416
▁시도는	-10.6417
오랜만에	-10.642
빠져	-10.6421
미친	-10.6422
번을	-10.6422
▁욕이	-10.6425
▁권상우	-10.6427
▁현실은	-10.6429
▁때문	-10.6432
▁영화와	-10.6436
▁대사도	-10.6437
▁부실	-10.6437
보려	-10.644
같지	-10.644
▁가족들	-10.6441
▁뭐여	-10.6441
▁섬세한	-10.6443
▁발음	-10.6445
▁이상은	-10.6445
▁코드	-10.6452
▁나타나	-10.6452
▁낮은지	-10.6454
▁고독	-10.6455
▁별점이	-10.6455
▁다시금	-10.6457
어쩌	-10.6457
▁커버	-10.646
▁키스	-10.6461
▁필요한가	-10.6463
▁긴장감을	-10.6464
▁킬러	-10.6466
어용	-10.6468
줘야지	-10.6468
▁죽인	-10.6474
시킬	-10.6477
▁하나님	-10.6478
▁될수	-10.6479
▁최고라고	-10.6479
▁오지	-10.648
▁느	-10.648
▁전개는	-10.6481
누구	-10.6486
해지고	-10.6487
▁강력	-10.649
▁스토리전개	-10.6492
▁보기싫	-10.6494
▁상황이	-10.6499
▁사회적	-10.6502
▁낚	-10.6511
▁정부	-10.6511
▁웃었다	-10.6514
▁결국은	-10.6516
▁추가	-10.6518
▁역사에	-10.6521
활	-10.6523
▁나머지는	-10.6523
▁앞뒤	-10.6523
뿌	-10.6527
▁어째	-10.6528
▁당신의	-10.6528
확	-10.6531
▁흘리	-10.6532
▁정보	-10.6533
▁절망	-10.6534
분짜리	-10.6537
▁오로지	-10.6538
▁좋으나	-10.654
▁태국	-10.6541
드려요	-10.6546
▁끝을	-10.6547
▁버린	-10.6548
▁나오기	-10.6549
하자면	-10.655
▁멋져요	-10.655
▁장난하나	-10.6551
휘	-10.6551
▁이해도	-10.6553
▁마블	-10.6553
▁어쩌다	-10.6553
즐	-10.6553
빼곤	-10.6555
▁모르겠네	-10.6555
얼마나	-10.6556
▁살아야	-10.6556
▁충분하다	-10.6558
▁지루함을	-10.6559
am	-10.6562
▁영화자체	-10.6562
▁고등학교	-10.6562
제국	-10.6564
수를	-10.6565
▁사랑스럽고	-10.6566
▁이런식으로	-10.6567
▁개그맨	-10.6567
▁마냥	-10.6569
각본	-10.657
이후로	-10.6571
최악의	-10.6572
▁완벽하다	-10.6574
심이	-10.6575
▁의도는	-10.6575
▁만드네	-10.6577
▁타란티노	-10.6578
▁환상적인	-10.6579
여행	-10.658
▁논리	-10.658
▁낚인	-10.6588
▁스파이	-10.659
▁구성도	-10.6591
▁제목에	-10.6591
▁것들이	-10.6591
▁아이들에게	-10.6591
▁분장	-10.6593
것인가	-10.6597
▁힘들었	-10.6597
입니까	-10.6598
곳에	-10.6598
▁설레	-10.66
▁것인가	-10.6602
▁있긴	-10.661
할정도로	-10.6612
우스	-10.6613
▁남자들	-10.6619
▁공룡	-10.662
학년때	-10.6624
▁남의	-10.6625
▁들어간	-10.6628
하겠습니다	-10.6633
▁노인	-10.6634
▁영화라지만	-10.6637
▁코믹영화	-10.6639
간만에	-10.6639
▁민족	-10.664
▁높지	-10.664
▁오그라들	-10.6642
겠는데	-10.6642
과정	-10.6644
▁드라마로	-10.6646
▁매력적	-10.6648
▁감동입니다	-10.665
▁어디에	-10.665
▁성룡의	-10.6655
짧	-10.6657
수준이	-10.6657
▁아까	-10.6658
거든	-10.6661
▁극장에	-10.6661
대체	-10.6661
▁무료	-10.6662
▁싶다면	-10.6664
▁아무나	-10.6665
▁생각만	-10.6666
▁신화	-10.6666
개는	-10.667
▁킬링	-10.6672
▁되는데	-10.6672
▁넣어	-10.6676
▁h	-10.6677
닫	-10.668
▁유치찬란	-10.6681
▁점수준것들	-10.6681
▁여러모로	-10.6681
▁아파	-10.6681
▁그려낸	-10.6683
▁신고	-10.6683
▁시험	-10.6684
영화보다	-10.6686
▁기획	-10.6686
▁모자라	-10.6688
le	-10.6692
▁불쾌	-10.6694
▁당장	-10.6695
▁달려	-10.6698
▁가짜	-10.6698
▁케미	-10.6699
▁볼것	-10.6701
▁부산	-10.6702
▁주온	-10.6703
탓	-10.6704
옷	-10.6704
▁강추합니다	-10.6706
▁잼있네요	-10.6706
▁조잡한	-10.6706
▁않습니다	-10.6707
었구나	-10.6707
그런데	-10.6708
▁모양	-10.6715
▁아니었다	-10.6717
▁소름끼치는	-10.6719
▁보고나니	-10.672
인게	-10.6721
▁감명	-10.6723
▁소장	-10.6724
▁한가지	-10.6724
▁글고	-10.6726
▁만들다	-10.6727
▁살아남	-10.6728
▁영화보다가	-10.6732
▁못하겠다	-10.6732
▁다운받	-10.6737
▁원숭이	-10.674
▁학	-10.6746
▁땡	-10.6747
놨네	-10.6748
이래	-10.675
저런	-10.675
▁길이	-10.6753
기도하고	-10.6753
▁가야	-10.6757
▁캐릭터도	-10.6758
아니고	-10.6759
▁난해한	-10.676
▁몰라	-10.6761
분들은	-10.6762
▁E	-10.6762
들이나	-10.6765
▁학생들	-10.677
들한테	-10.677
모르고	-10.6771
▁후하게	-10.6774
봣다	-10.6775
▁냉	-10.6777
▁배우분들	-10.6778
달라	-10.6779
▁열라	-10.6779
▁오글	-10.6783
▁보아도	-10.6785
할지	-10.6787
▁두시간	-10.6787
렬	-10.6788
▁드라마중	-10.6788
▁부탁	-10.6789
▁어이없음	-10.679
▁멋진영화	-10.6791
ᄃᄃᄃ	-10.6797
▁줘	-10.6797
지루해	-10.6801
▁스릴러물	-10.6801
모를	-10.6806
아무	-10.6808
▁재밌지	-10.6811
▁받았다	-10.6812
▁돌아보게	-10.6815
▁취향이	-10.6815
보네요	-10.6816
▁아버지의	-10.6816
것들이	-10.6816
낭	-10.6817
자들의	-10.682
렉	-10.6824
▁슈	-10.6824
균	-10.6825
▁등록	-10.6825
▁왕조현	-10.6828
▁극혐	-10.6829
▁강아지	-10.6829
▁예측	-10.6829
▁설정은	-10.6829
▁슈퍼맨	-10.683
▁폼	-10.6831
▁신선하	-10.6832
▁고증	-10.6834
▁음향	-10.6836
▁몬	-10.6838
▁정신이	-10.6841
▁볼만하	-10.6842
▁매번	-10.6844
▁R	-10.6846
떡	-10.6847
있는영화	-10.6847
▁폐	-10.685
th	-10.685
▁표현할	-10.685
홀	-10.6852
썼	-10.6853
옛날	-10.6857
TV	-10.6857
CG	-10.6857
▁슬	-10.6861
어떤	-10.6861
▁성인이	-10.6864
▁웃겨서	-10.6865
▁허허	-10.6865
▁시체	-10.6868
사의	-10.6871
살이	-10.6873
▁말밖에	-10.6873
▁지겹	-10.6873
▁보단	-10.6878
▁두개	-10.6881
더군	-10.6882
▁했을까	-10.6887
▁부인	-10.6888
비추	-10.6889
▁진부하다	-10.6889
▁제대로된	-10.689
▁했으나	-10.6893
공부	-10.6894
▁ᄒᄃᄃ	-10.6899
믿고	-10.6905
선생님	-10.6909
▁무엇이	-10.6913
▁스릴감	-10.6914
▁재미없네요	-10.6915
▁했나	-10.6925
보러	-10.6931
▁여자를	-10.6935
▁몇년	-10.6936
▁사랑하고	-10.694
같은데	-10.6941
ost	-10.6941
▁지경	-10.6942
차원	-10.6944
복수	-10.6947
▁말해	-10.6949
▁숨은	-10.6949
▁있냐	-10.6951
▁글을	-10.6953
▁장진	-10.6954
ᄏᄏᄏᄏᄏᄏᄏ	-10.6956
▁경우	-10.6957
하지마	-10.696
▁남는게	-10.6964
살때	-10.6964
씬이	-10.6966
▁안나옴	-10.6967
▁하다니	-10.6973
잘못	-10.6974
뮤	-10.6974
▁17	-10.6975
아직	-10.6975
않는	-10.6977
▁다이하드	-10.6977
▁w	-10.6979
▁늙은	-10.6979
인물	-10.6979
▁말이필요없다	-10.6979
▁2015	-10.698
▁아니라면	-10.6981
거라고	-10.6982
▁자연스럽게	-10.6982
삼류	-10.6982
▁나왔던	-10.6986
............	-10.699
▁항	-10.699
돌려	-10.6991
▁이하도	-10.6995
▁제목은	-10.6998
▁커서	-10.7004
▁엉망진창	-10.7004
뉴	-10.7008
▁클래식	-10.7009
섬	-10.7009
▁영화인것	-10.7011
▁후속편	-10.7012
▁세계관	-10.7012
▁명성에	-10.7018
▁억지스럽고	-10.7019
▁딸이	-10.7019
회부터	-10.7022
됬다	-10.7024
▁느낀다	-10.7025
▁현실에	-10.7032
▁전개에	-10.7037
▁좋더라	-10.7039
방에서	-10.704
개가	-10.704
▁끔	-10.7043
ed	-10.7044
▁짱구	-10.705
거니	-10.7053
▁x	-10.7054
▁하기	-10.7055
▁맞나	-10.7056
보셈	-10.7057
않고	-10.7059
▁완성	-10.7061
▁캐릭	-10.7062
▁눈치	-10.7063
속으로	-10.7064
▁넘어서	-10.7065
▁멋짐	-10.7066
▁아쉬워요	-10.7069
▁원작과	-10.7076
스럽	-10.7079
이니까	-10.708
발연기	-10.7082
버렸네	-10.7086
▁가장한	-10.7087
수밖에	-10.7087
▁점이	-10.7094
▁표현이	-10.7097
봐야지	-10.7097
말을	-10.7098
▁어우	-10.7106
▁공연	-10.7106
막히	-10.7108
버전	-10.7112
부를	-10.7113
그대로	-10.7113
▁여친	-10.7116
낮은	-10.712
로우	-10.7122
낀	-10.7125
느껴	-10.7126
해져	-10.7128
▁죽었	-10.7128
▁세련된	-10.7129
▁짬뽕	-10.7129
쟈	-10.7129
▁고등학생	-10.7129
▁뒤늦게	-10.7129
▁온갖	-10.7129
▁레옹	-10.713
▁재앙	-10.7132
▁기억나	-10.7136
▁올라가	-10.7139
▁공포는	-10.714
남기	-10.714
▁거기서	-10.7141
▁아오이	-10.7141
현실적	-10.7141
▁뭐랄까	-10.7141
▁성형	-10.7142
▁개인적인	-10.7142
▁미학	-10.7143
▁늙어	-10.7143
..............	-10.7144
▁해야지	-10.7145
▁오직	-10.7145
▁나올때	-10.7146
▁음악은	-10.7149
편과	-10.7151
부러	-10.7151
붕	-10.7156
▁높이	-10.7157
▁화질	-10.7158
▁건가	-10.7158
기술	-10.7158
▁구분	-10.716
▁있겠지만	-10.7162
초딩	-10.7169
▁한석규	-10.7169
▁잔잔함	-10.717
레기	-10.717
▁중국영화	-10.7171
com	-10.7171
▁두명	-10.7173
▁잼없다	-10.7175
▁비교해	-10.7176
후반	-10.7181
형제	-10.7183
▁사실이	-10.7183
놈은	-10.7185
▁동감	-10.7186
▁눈으로	-10.7187
▁스파이더맨	-10.719
▁먹먹	-10.7192
▁예수	-10.7192
점주기도	-10.7194
ad	-10.7194
▁재밋는	-10.7198
▁또라이	-10.7199
▁여자친구	-10.7205
▁의미있는	-10.7206
▁슬펐	-10.7207
▁심오	-10.721
▁버려	-10.721
▁알겠	-10.721
▁말아	-10.7214
미치	-10.7215
▁감성을	-10.7219
▁보게되는	-10.7225
▁보지마셈	-10.7227
프라	-10.7229
▁프	-10.7231
▁제작자	-10.7235
표정	-10.7238
점대가	-10.7239
려다가	-10.724
▁의미도	-10.7243
▁중심	-10.7244
▁보고싶은데	-10.7244
▁등장인물들	-10.7246
성에	-10.7246
▁오는	-10.7246
▁알려주는	-10.7249
▁따라가	-10.7252
같은거	-10.7258
▁아이유	-10.7261
맘에	-10.7264
▁꿀	-10.7266
▁오해	-10.7267
▁울었	-10.727
^^;	-10.7271
▁밑	-10.7271
함에	-10.7272
▁만들어야	-10.7277
▁거리	-10.728
하나요	-10.7281
▁니콜	-10.7282
☆	-10.7282
▁껐다	-10.7282
▁살렸다	-10.7282
▁엔딩크레딧	-10.7283
▁떡밥	-10.7283
▁두고두고	-10.7283
▁주인공들이	-10.7284
▁뜬금없	-10.7285
▁바라는	-10.7286
▁대박이다	-10.7286
▁의해	-10.7288
▁쏘우	-10.729
▁쌍	-10.7292
▁해준다	-10.7292
봣어요	-10.7292
▁현실적이	-10.7297
▁보고있는데	-10.73
▁공주	-10.73
▁말은	-10.7301
긴했지만	-10.7303
▁자랑	-10.7304
▁ᄡ	-10.7309
▁모방	-10.731
잊	-10.7312
하길래	-10.7312
▁나열	-10.7318
지않아	-10.7319
앉	-10.7321
▁역작	-10.7321
아까워	-10.7322
▁아바타	-10.7324
딴	-10.7326
결혼	-10.7327
▁비쥬얼	-10.7328
▁완젼	-10.7328
▁V	-10.7328
▁연기잘하	-10.7336
▁영환	-10.7336
▁가족을	-10.7338
멜	-10.7341
한마디로	-10.7343
▁녹	-10.7344
▁상처를	-10.7347
흘	-10.7352
▁정리	-10.7352
▁분위기는	-10.7352
▁후반부에	-10.7354
▁상업영화	-10.7355
▁망쳐놓	-10.7356
어라	-10.7356
▁영상은	-10.7356
▁수고	-10.7357
간에	-10.7358
▁메세지를	-10.7358
▁마니	-10.7359
▁아침	-10.7361
▁손가락	-10.7363
셔야	-10.7371
▁와서	-10.7375
▁웃음을	-10.7375
▁사과	-10.7376
▁일본에서	-10.738
▁별로네요	-10.7382
▁무협영화	-10.7385
눈물이	-10.7391
사극	-10.7391
학원	-10.7397
꺼야	-10.7398
▁오랜	-10.7408
▁어색함	-10.7408
했다가	-10.741
나오면	-10.7414
▁조아	-10.7416
▁배꼽	-10.7425
▁미녀	-10.7429
▁최고최고	-10.743
아오	-10.743
▁허나	-10.7437
ᄍ	-10.7437
덩	-10.7439
풋	-10.7439
▁드니로	-10.7439
▁한효주	-10.7439
▁마리	-10.744
▁그럴싸	-10.744
▁픽사	-10.7441
것같아	-10.7441
▁대사들	-10.7444
▁하자	-10.7447
케이	-10.7448
▁가져	-10.7449
▁개꿀잼	-10.745
▁궁금해	-10.7453
▁파워	-10.7453
▁어설프게	-10.7455
▁잊을수	-10.7456
▁장면만	-10.7456
es	-10.7457
▁잔혹	-10.7462
자들이	-10.7462
▁아이를	-10.7463
▁했는지	-10.7463
▁승부	-10.7465
▁최고에요	-10.7467
▁싸이코패스	-10.7467
▁지루하기	-10.7468
40	-10.7469
것같음	-10.7469
▁밋밋한	-10.747
▁줄이야	-10.747
▁원조	-10.747
콩	-10.7472
▁여기에	-10.7473
영화네요	-10.7473
▁장소	-10.7473
못함	-10.7475
▁진실을	-10.7475
없었	-10.7476
▁김수현	-10.7476
▁한동안	-10.7477
내내	-10.7477
▁색감	-10.748
▁movie	-10.748
▁되서	-10.7481
▁전율	-10.7483
▁하기엔	-10.7484
셀	-10.7484
▁수면제	-10.7486
드네요	-10.7486
자연	-10.7486
▁예고	-10.7489
▁하하하	-10.7491
▁안보면	-10.7493
▁천만	-10.7494
▁당황	-10.7497
보던	-10.75
할줄	-10.7506
▁옆에	-10.7507
거같아	-10.7508
엇는데	-10.751
▁우리나라에서	-10.7513
▁안봐서	-10.7514
▁결정	-10.7518
▁영상미와	-10.7522
▁반응	-10.7522
▁매주	-10.7523
▁빠져들게	-10.7524
하나도	-10.7527
인지도	-10.7529
기억이	-10.7529
는줄	-10.7533
▁자세	-10.7535
트로	-10.7537
▁티비로	-10.7537
▁청년	-10.7537
▁다른영화	-10.7537
▁인생에서	-10.7538
▁할때	-10.7539
시네	-10.7542
▁뉴	-10.7545
▁몽	-10.7546
▁즐길	-10.7553
습니까	-10.7554
레스	-10.7555
▁향수	-10.7555
▁어린애	-10.7556
▁니가	-10.7561
뒤에	-10.7562
▁적은	-10.7563
▁들어서	-10.7563
▁시청자들	-10.757
졌음	-10.7572
▁아프	-10.7572
▁이영화의	-10.7576
너무나	-10.7577
전이	-10.7577
더라고요	-10.7577
▁포스	-10.7578
▁귀신이	-10.7578
보신분	-10.758
▁이딴게	-10.7582
▁못하네	-10.7587
▁범인이	-10.7588
▁오락	-10.759
▁굳굳	-10.7591
팬이	-10.7592
ᄁ	-10.7592
▁않아요	-10.7592
측	-10.7594
▁대사와	-10.7596
탱	-10.7596
웟	-10.7597
▁원주율	-10.7597
▁박평식	-10.7597
▁설경구	-10.7597
▁감성팔이	-10.7598
▁컬트	-10.7598
▁흥미롭게	-10.7598
▁심각하게	-10.7598
▁지겨워	-10.7598
▁충격이	-10.7599
▁연기만	-10.76
▁바란다	-10.76
▁게스트	-10.7603
▁시골	-10.7605
▁깨달음	-10.7606
물로	-10.7606
▁소품	-10.7607
분정도	-10.7607
▁기억난다	-10.7608
▁재밌었습니다	-10.761
▁걸까	-10.761
년간	-10.761
할려고	-10.7611
판이	-10.7611
▁처음본다	-10.7611
▁러브스토리	-10.7613
▁뻔한스토리	-10.7613
봤네	-10.7616
▁뉴스	-10.7616
▁감정선	-10.7616
완벽하게	-10.7617
▁더욱더	-10.762
▁처음이네	-10.7621
▁런닝타임	-10.7622
▁우린	-10.7625
▁공포가	-10.7625
▁씁쓸	-10.7629
▁들지	-10.7631
▁채워	-10.7632
하고싶은	-10.7633
▁다리	-10.7633
드가	-10.7638
▁탐	-10.7639
하였다	-10.7642
▁편인데	-10.7643
▁조차	-10.7644
머니	-10.7647
답다	-10.7649
댓글	-10.7649
▁엄정화	-10.7653
애가	-10.7654
▁알아야	-10.7658
▁진부하	-10.766
든가	-10.7663
▁전라도	-10.7663
▁힘들어	-10.7665
▁나오네요	-10.7666
랑은	-10.7679
▁하시	-10.768
▁힘들었다	-10.7689
둥이	-10.7698
해야할	-10.7702
▁있었음	-10.7702
▁과정이	-10.7711
보임	-10.7713
▁밝혀	-10.772
▁조잡	-10.7722
긴다	-10.7724
▁했습니다	-10.7726
▁생각은	-10.7727
▁쉽	-10.7728
았는데	-10.7733
▁잘생겼	-10.7735
보소	-10.7736
▁사람만	-10.7737
▁쩌	-10.7741
▁극복	-10.7742
▁내리	-10.7744
▁당연한	-10.7748
▁기회	-10.7749
▁봤는지	-10.7749
▁싸우	-10.7755
▁대역	-10.7755
▁신이	-10.7757
▁무엇	-10.7757
▁허구	-10.7758
밍	-10.7759
뚜	-10.7759
▁군더더기	-10.7759
▁박찬욱	-10.7759
▁송승헌	-10.7759
▁안타까움	-10.7759
▁외로움	-10.7759
▁가까이	-10.7759
▁호불호가	-10.7759
▁농담	-10.776
땜시	-10.7761
달리	-10.7762
▁봤나	-10.7762
동화	-10.7763
▁열광	-10.7763
감상	-10.7764
생각을	-10.7766
▁미술	-10.7767
▁인물들의	-10.7767
▁복선	-10.7769
▁괜찮았던	-10.777
▁명배우	-10.777
▁났	-10.7772
보게되	-10.7775
▁초반엔	-10.7775
▁짱이다	-10.7779
▁to	-10.778
중간에	-10.7781
▁못해서	-10.7782
▁스토리로	-10.7784
▁여자들이	-10.7785
▁아련한	-10.7785
▁에로물	-10.7791
▁고어	-10.7791
대단	-10.7793
▁태어나	-10.7793
대를	-10.7794
여운	-10.7795
▁하며	-10.7796
▁벤	-10.7796
▁면에서	-10.7797
려다	-10.7798
▁이것은	-10.7798
▁실감	-10.7801
없었다	-10.7806
▁감동적이었다	-10.7809
▁외면	-10.7809
▁깜놀	-10.7812
▁데려다	-10.7813
▁이어지	-10.7813
들끼리	-10.7816
덕분에	-10.7817
아름다운	-10.7817
암튼	-10.7819
▁죽음을	-10.782
▁작품이라	-10.7821
▁얘기를	-10.7821
모르겠다	-10.7821
나올때	-10.7823
폭력	-10.7824
...(	-10.7829
▁느껴질	-10.7829
▁머야	-10.7833
▁시대가	-10.7834
▁첨으로	-10.7842
▁정체	-10.7843
하하하하	-10.7844
수작	-10.7844
▁형식	-10.7848
...^^	-10.7848
지않나	-10.7849
▁ᄉ	-10.7852
▁영화였는데	-10.7852
▁감동이다	-10.7853
놀이	-10.7854
웃긴	-10.7855
점주고	-10.7857
신은	-10.7858
▁감이	-10.7863
▁되면	-10.7865
▁니들이	-10.7868
▁심오한	-10.787
▁몰입도도	-10.7871
▁최대	-10.7874
맞고	-10.7874
▁답답해	-10.7876
▁쪼	-10.7878
▁울어	-10.7881
▁가치도	-10.7881
았지만	-10.7886
▁나올까	-10.7886
▁달달	-10.7887
▁한다고	-10.7889
지도않	-10.789
구먼	-10.7891
▁반감	-10.7891
▁싶었는데	-10.7895
맞아	-10.7896
성은	-10.7898
받아	-10.7899
리스트	-10.7899
▁혐오	-10.7902
▁세대	-10.7902
볼때	-10.7903
줄알았는데	-10.7906
▁남자는	-10.7907
수없다	-10.7909
▁시대적	-10.7911
▁킬링타임용으로도	-10.7911
▁비교하면	-10.7917
▁벗어나	-10.7918
씨도	-10.792
▁보이고	-10.7921
▁오랫동안	-10.7923
▁그냥저냥	-10.7923
▁팝콘	-10.7923
▁손예진	-10.7923
▁최민수	-10.7923
▁멘탈	-10.7923
구석	-10.7924
밖엔	-10.7924
▁패션	-10.7925
▁J	-10.7925
▁로맨틱코미디	-10.7926
▁재탕	-10.7926
▁잘만들	-10.7926
▁걸리	-10.7928
▁억지스런	-10.7928
▁국산	-10.7928
▁영화같다	-10.793
▁입장	-10.7931
~~~~~	-10.7931
만원	-10.7934
▁벌어	-10.7934
▁삐	-10.7934
▁있었습니다	-10.7935
결말이	-10.7935
맞추	-10.7936
▁앞에서	-10.7937
▁안좋은	-10.7937
▁봤고	-10.7941
▁추억을	-10.7942
▁번역	-10.7944
없을	-10.7944
▁듣기	-10.7951
▁OOOO	-10.7952
▁한장면	-10.7952
▁그이상	-10.7953
▁여주인공의	-10.7953
▁불가	-10.7955
▁애니매이션	-10.7957
▁편하게	-10.7964
함은	-10.7964
▁컷	-10.7966
▁잘해	-10.7967
.............	-10.7971
▁본것	-10.7972
▁셋	-10.7973
▁때는	-10.7974
▁믿는	-10.7975
▁약하다	-10.7975
▁꽉	-10.7976
▁김희선	-10.7976
▁스페인	-10.7976
▁긴장감과	-10.7976
▁나면	-10.7977
▁구조	-10.798
▁만든건지	-10.798
▁얘	-10.798
▁머냐	-10.7982
▁우울한	-10.7985
▁쌓	-10.7985
▁정체성	-10.7986
그래픽	-10.7987
내려	-10.7988
▁차승원	-10.799
어여	-10.7991
편부터	-10.7992
▁너무하네	-10.7994
구역	-10.7995
하겠지만	-10.7996
하시고	-10.8005
분도	-10.8005
▁충실	-10.8006
쩐다	-10.8011
▁혼란	-10.8013
▁같지만	-10.8014
연기를	-10.8016
▁후반부로	-10.8017
▁뺏	-10.8017
보시	-10.8021
▁끝남	-10.8023
▁물어	-10.8025
▁높은지	-10.8026
▁그대	-10.8028
여자가	-10.8028
▁이영화에	-10.803
▁일을	-10.803
드리고	-10.8031
호러	-10.8037
말이필요없	-10.8042
▁있기	-10.8042
▁한사람	-10.8044
▁중독	-10.8047
▁한개	-10.8049
▁찾아볼	-10.805
▁어린아이	-10.8052
▁안가는	-10.8053
▁부분에서	-10.8054
▁한국에	-10.8057
는것을	-10.8062
▁전설이	-10.8062
봤지	-10.8066
▁최고인듯	-10.8066
알고	-10.8067
▁집중도	-10.8069
▁-_-;;	-10.8073
▁심장이	-10.808
▁졸잼	-10.8081
▁징	-10.8082
지루한	-10.8084
▁소리만	-10.8086
▁반영	-10.8087
▁참여	-10.8087
찐	-10.8088
▁주고싶다	-10.8089
역을	-10.8089
셜	-10.8089
▁정주행	-10.8089
▁왕가위	-10.8089
이기에	-10.809
▁찬사를	-10.809
▁봣	-10.809
▁저평가	-10.8091
▁더러워	-10.8092
▁생존	-10.8092
▁절반	-10.8093
▁지브리	-10.8093
▁사이코	-10.8095
▁치료	-10.8095
▁날리	-10.8095
범죄	-10.8097
하는건지	-10.81
보네	-10.8102
un	-10.8104
▁만들었냐	-10.8104
▁K	-10.8104
▁상영관	-10.8107
듣고	-10.8108
영화였다	-10.8109
▁회상	-10.8109
▁극본	-10.8109
▁감동받	-10.811
▁언어	-10.8112
▁부자	-10.8114
▁기대된다	-10.8115
화면	-10.8119
▁화끈한	-10.8119
▁괜찮아	-10.8123
시기	-10.8123
그때	-10.8124
▁쓰러	-10.8125
하하	-10.8126
돈이	-10.8126
해본	-10.8126
▁저러	-10.8127
야겠다	-10.8128
▁재밋어	-10.8133
볼수	-10.8133
▁김혜수	-10.8135
▁이야기의	-10.8139
▁웃겼다	-10.8141
▁막상	-10.8143
안에서	-10.8143
그녀	-10.8147
▁오글거림	-10.8148
▁약한	-10.8149
▁안타깝	-10.8151
▁r	-10.8155
▁알지	-10.8156
틈	-10.8157
튀	-10.8157
▁시점	-10.8158
bb	-10.816
촬영	-10.816
▁배려	-10.816
▁미스테리	-10.8162
소름	-10.8167
▁평화	-10.8169
▁안들	-10.817
▁통해서	-10.817
크리	-10.8171
▁도움이	-10.8172
▁걸작이다	-10.8173
▁다름	-10.8175
안나	-10.8176
▁기존	-10.8178
작가님	-10.818
아닌데	-10.8189
▁연주	-10.8191
▁아버지가	-10.8193
▁불가능	-10.8194
▁드라마다	-10.8195
시키지	-10.8196
▁뛰어넘	-10.8197
렵	-10.82
▁나니	-10.8208
하는듯	-10.8214
▁면이	-10.8215
▁따름	-10.822
나왓	-10.8222
▁전율이	-10.8222
▁잤	-10.823
▁보고싶어	-10.823
보기엔	-10.8235
쩜	-10.8237
▁감독에게	-10.824
▁족	-10.8241
▁락	-10.8241
되다니	-10.8242
▁아직까지도	-10.8243
▁첩보	-10.8251
흡	-10.8252
슬프	-10.8255
▁거기	-10.8255
▁만났	-10.8256
쉐	-10.8257
▁늑대	-10.8257
▁흑	-10.8257
냄	-10.8258
▁왔다	-10.8258
퓨	-10.8259
넬	-10.8259
졋	-10.8259
▁웬만하면	-10.8259
▁흑역사	-10.8259
▁갖춘	-10.826
▁가슴아픈	-10.826
▁덤	-10.826
노출	-10.8261
▁닮았	-10.8261
하려면	-10.8261
▁색채	-10.8261
▁낮추	-10.8263
▁흥미롭지	-10.8265
▁피곤	-10.8265
신선	-10.8265
▁아깝습니다	-10.8266
▁모독	-10.8267
▁질문	-10.8267
▁받아야	-10.8269
▁감동적입니다	-10.827
본사람	-10.8273
▁녹아	-10.8274
▁해외	-10.8274
서야	-10.8275
▁제왕	-10.8276
▁교회	-10.8277
▁싶음	-10.8278
▁멜로영화	-10.8278
▁이기적인	-10.8279
▁러닝타임이	-10.8281
▁가족과	-10.8281
▁케	-10.8287
▁캐스팅은	-10.829
▁위험	-10.8292
싫	-10.8292
▁지우	-10.8293
▁엉망이	-10.8293
▁아닌것	-10.8296
▁때가	-10.8297
▁웃다가	-10.8297
▁크레딧	-10.8299
게다가	-10.8301
▁갖게	-10.8303
▁어차피	-10.8304
▁비해서	-10.8304
▁튀	-10.8306
▁기타	-10.831
▁말았다	-10.831
▁재밋네요	-10.8312
♥♥♥♥	-10.8312
▁봐줄만	-10.8314
▁촌	-10.8315
데이	-10.8316
▁가능성	-10.8321
▁무리수	-10.8322
▁점에서	-10.8323
▁역량	-10.8325
달라고	-10.8326
▁됬	-10.8328
▁여배우가	-10.8328
밑에	-10.833
롤	-10.833
이라는게	-10.833
▁인식	-10.8331
쥬	-10.8332
ne	-10.8332
위에	-10.8334
▁봐주	-10.8336
▁이따위로	-10.8336
▁본능	-10.8339
▁영상미도	-10.8339
스토	-10.834
▁만날	-10.8343
▁볼만한데	-10.8344
천재	-10.8348
▁가져다	-10.8354
학생	-10.8356
▁커녕	-10.8357
▁바라보는	-10.8358
▁향기	-10.8364
▁몰입하게	-10.8367
자면	-10.8368
브라	-10.8368
판에	-10.8371
그림	-10.8379
▁ᄏᄏᄏᄏᄏᄏᄏᄏᄏ	-10.8379
▁성적	-10.8382
▁공포감	-10.8382
▁이딴거	-10.8384
어리	-10.8385
▁혹	-10.839
▁go	-10.8394
버린다	-10.8396
므	-10.8397
▁향한	-10.8397
▁억지스럽	-10.8399
하는것도	-10.84
▁여자애	-10.8404
▁남들	-10.8404
▁시리즈가	-10.8405
닿	-10.8406
을뿐	-10.8407
▁욕을	-10.8407
설명	-10.8408
▁없어도	-10.841
▁다보고	-10.841
▁줘도	-10.8411
▁기준	-10.8412
▁이끌어	-10.8414
▁이어지는	-10.8415
껀	-10.8417
▁벨	-10.8418
이형	-10.8421
▁솔직	-10.8424
때는	-10.8426
랍니다	-10.843
▁영웅본색	-10.8431
▁차태현	-10.8431
▁학창시절	-10.8431
삘	-10.8431
▁엑스맨	-10.8432
▁윌리스	-10.8432
▁빈약한	-10.8432
▁람보	-10.8433
▁날라	-10.8434
▁언론	-10.8434
▁끝난다	-10.8434
▁첫번째	-10.8435
▁여태	-10.8437
▁사라	-10.8438
▁음악을	-10.8439
▁재방송	-10.8439
▁마다	-10.8439
▁만들어주	-10.844
▁모순	-10.8443
▁하고싶은	-10.8445
▁알려준	-10.8448
▁히어로물	-10.845
하지않고	-10.845
▁현실적으로	-10.8451
▁찍을	-10.8451
▁동화같은	-10.8451
▁환장	-10.8452
▁죽는다	-10.8452
재밌는	-10.8452
▁인간적으로	-10.8454
▁정석	-10.8454
▁상당한	-10.8456
했었다	-10.8461
▁;;;	-10.8463
▁이렇게까지	-10.8463
▁영향을	-10.8464
▁오글거리고	-10.8466
몇번	-10.8467
조차도	-10.8468
▁불쌍해서	-10.8468
▁영화적	-10.8469
줄알았다	-10.8472
▁숲	-10.8472
▁흉내내	-10.8478
▁제시카	-10.8479
▁안남	-10.8479
진행	-10.8479
▁날려	-10.8481
누가	-10.8483
한건지	-10.8484
▁회사	-10.8485
▁끄는	-10.849
▁액션물	-10.849
▁내시간	-10.8491
▁크다	-10.8492
▁테이큰	-10.8492
▁데뷔작	-10.8496
▁별거	-10.8499
▁빠질	-10.8499
않았다	-10.85
▁기법	-10.8503
▁군인	-10.8504
▁지금보면	-10.8505
▁복잡한	-10.8505
▁그들	-10.8506
18	-10.8509
시면	-10.8509
▁감성이	-10.8509
▁무난	-10.8509
▁잊지못할	-10.8511
정도는	-10.8511
▁드리	-10.8513
개연성	-10.8513
▁부족하고	-10.8514
형사	-10.8514
▁199	-10.8515
댄	-10.8516
할거	-10.8522
흥미를	-10.8523
재밋어요	-10.8527
재밋음	-10.8529
했어도	-10.853
▁완성도가	-10.8535
▁저급	-10.8536
▁알바가	-10.8538
짓을	-10.8538
▁만들었으면	-10.8539
▁했어요	-10.8543
▁ᄍ	-10.8545
▁선생	-10.8548
겠다는	-10.8549
년동안	-10.8551
▁필요하다	-10.8565
끝내	-10.8567
기영화	-10.8568
▁웃기지	-10.8568
버스	-10.8572
데스	-10.8572
▁안봄	-10.8574
▁상상력이	-10.8575
▁마법	-10.8577
안돼	-10.8579
▁관심을	-10.8579
▁보지도	-10.8582
ck	-10.8584
셧	-10.8586
아닌가	-10.8587
한국영화	-10.8589
로서의	-10.859
▁밋밋	-10.8591
하죠	-10.8592
랴	-10.8593
▁떠오르는	-10.8601
▁중학교	-10.8601
▁소름끼치	-10.8602
▁많네	-10.8602
▁쓰레기를	-10.8605
▁유행	-10.8605
쫓	-10.8605
▁놓치	-10.8606
팝	-10.8607
▁기다렸	-10.8607
믄	-10.8607
▁홧팅	-10.8607
▁원피스	-10.8607
▁완죤	-10.8607
같네요	-10.8608
▁관람객	-10.8608
▁찢어	-10.8609
▁하세요	-10.861
▁보낸다	-10.861
▁명작임	-10.861
▁미친듯이	-10.8611
▁자연스러운	-10.8611
▁시간아까워	-10.8612
▁과장된	-10.8613
▁경악	-10.8614
▁대학생	-10.8615
마음이	-10.8615
▁지나친	-10.8615
났음	-10.8622
▁것과	-10.8622
▁고작	-10.8623
▁좋아하지	-10.8623
다보니	-10.8623
엇음	-10.8624
▁석	-10.8625
▁영화야	-10.8626
할수없는	-10.8627
럴	-10.8627
▁트랜스포머	-10.8629
거랑	-10.8631
저리	-10.8632
▁끌려	-10.8634
얻	-10.8634
▁되야	-10.8637
▁다시보기	-10.8639
▁이성	-10.864
아나	-10.864
▁결국엔	-10.864
▁인권	-10.8641
시간을	-10.8643
▁안봤	-10.8644
▁국어책	-10.8646
▁보구	-10.8648
▁♥	-10.865
▁안되네	-10.8651
걸작	-10.8658
▁버렸다	-10.8659
▁현실적이고	-10.8663
잼나	-10.8669
점도아깝다	-10.8672
▁아름다웠다	-10.8673
▁쓰레기네	-10.8675
▁안좋	-10.8676
▁안감	-10.8678
라곤	-10.8682
▁돈으로	-10.8683
모자	-10.8685
혔	-10.8686
▁미안해	-10.8689
리오	-10.8692
여기	-10.8693
▁벽	-10.8693
▁아이고	-10.8695
▁노래는	-10.8695
▁아침드라마	-10.8696
네이버	-10.8696
갑자기	-10.8696
보지마세요	-10.8696
▁사회의	-10.8698
▁나올수	-10.8701
▁놓은	-10.8703
▁드라마에	-10.8705
다르	-10.8705
▁통쾌한	-10.8705
▁ᅲᅮ	-10.8706
▁네이버평점	-10.8708
마리	-10.8713
만든다	-10.8714
분들이	-10.8719
간지	-10.8721
▁명작이라고	-10.8722
감동도	-10.8723
:)	-10.8723
▁대표	-10.8728
▁정신병	-10.8735
웠던	-10.8739
줘요	-10.8741
▁작위적	-10.8741
▁별로인	-10.8752
▁기대했던	-10.8752
▁마무리가	-10.8752
▁문제는	-10.8756
본거	-10.8761
▁만드냐	-10.8762
섯	-10.8766
▁아빠가	-10.8767
있다면	-10.8768
▁옳	-10.877
앞	-10.877
ᅮᅮᅮᅮ	-10.877
미안	-10.8771
앞에서	-10.8771
▁난잡	-10.8771
삭	-10.8773
것에	-10.8775
아까운영화	-10.8775
▁남긴	-10.8778
▁잔잔	-10.8778
▁끼워	-10.8779
▁진행되는	-10.8779
▁알려주	-10.878
▁연습	-10.8782
싼	-10.8782
쿡	-10.8782
콤	-10.8784
쎄	-10.8784
평점은	-10.8784
▁무기	-10.8785
켰	-10.8785
^_^	-10.8785
▁클리셰	-10.8785
▁힙합	-10.8785
▁겨울왕국	-10.8785
점준것중	-10.8786
▁아이언맨	-10.8786
▁총체적	-10.8786
▁타이틀	-10.8786
▁색깔	-10.8786
▁2.22	-10.8787
▁드라마라고	-10.8787
><	-10.8788
▁재밋고	-10.8788
판을	-10.879
▁장혁	-10.879
▁커피	-10.879
▁허탈	-10.879
▁학살	-10.879
▁증거	-10.8791
▁평점조절	-10.8793
▁예뻐서	-10.8796
▁재미없었음	-10.8797
▁한줄	-10.8798
▁어떠한	-10.88
큼	-10.8802
▁복수극	-10.8802
지마세요	-10.8805
▁레오	-10.8807
▁재미만	-10.8807
▁건강	-10.8807
▁위트	-10.8809
봤을땐	-10.881
▁이은주	-10.8812
▁한글	-10.8812
있었던	-10.8814
재미없는	-10.8814
▁없애	-10.8815
죽는	-10.8822
▁차별	-10.8823
▁구혜선	-10.8823
갔으면	-10.8824
▁넓	-10.8828
▁사무라이	-10.8828
▁황정민	-10.8828
▁흉내	-10.8828
아쉽	-10.8829
▁잡는	-10.8831
일때	-10.8832
ce	-10.8835
일단	-10.8836
▁세월	-10.8837
▁여인	-10.8839
에휴	-10.8842
말아먹	-10.8842
▁튀어	-10.8843
스러웠다	-10.8847
▁주먹	-10.8847
▁우리에게	-10.8849
넘치는	-10.8849
▁팍팍	-10.8853
▁본질	-10.8858
▁시간도	-10.8859
▁개소리	-10.886
졌으면	-10.8861
▁활	-10.8862
▁웃긴다	-10.8864
시네요	-10.8866
▁연기력과	-10.8867
되네	-10.8867
▁못했	-10.8867
까요	-10.8868
▁뻥	-10.8868
ᄒᄒᄒᄒ	-10.8869
쩔	-10.8869
벽	-10.8875
는데도	-10.8877
들인	-10.8877
▁풀어내	-10.8881
ᄉᄇ	-10.8881
▁미래를	-10.8882
무서운	-10.8882
잘봤습니다	-10.8884
▁클라라	-10.8885
볼때마다	-10.8885
▁재수없	-10.8887
▁떨어져	-10.8888
▁애니를	-10.889
▁즐거웠	-10.889
별루	-10.8893
▁허접하고	-10.8894
▁굿굿굿	-10.8896
▁진정성	-10.8896
▁나고	-10.8897
작이라	-10.8898
될듯	-10.8904
▁헉	-10.8904
▁그들을	-10.8905
very	-10.8911
▁돈아깝다	-10.8912
쟁	-10.8916
▁전부다	-10.8916
▁마지막은	-10.8921
▁지금이나	-10.8922
죽음	-10.8925
▁못했던	-10.8926
▁황금	-10.8927
▁반개	-10.8929
▁한거	-10.8932
▁안좋아	-10.8933
▁무게	-10.8936
▁최악임	-10.8936
주고싶	-10.8936
▁되어야	-10.8937
▁멋졌	-10.8938
▁이해못	-10.8942
인들의	-10.8945
▁스토리나	-10.8946
▁기사	-10.8947
인것같다	-10.895
▁웃음만	-10.8953
줄거리	-10.8956
▁버전	-10.8957
▁깨닫	-10.8958
▁메세지가	-10.8965
깃	-10.8967
덴	-10.8967
홈	-10.8967
▁드림웍스	-10.8967
▁섞어	-10.8967
▁인상깊게	-10.8967
▁흐지부지	-10.8967
▁드래곤볼	-10.8967
▁어딘가	-10.8967
▁나머진	-10.8967
▁오페라	-10.8967
▁손색이	-10.8968
는건가	-10.8969
▁나와도	-10.897
▁한방	-10.8971
▁되나	-10.8971
▁본방	-10.8973
했더니	-10.8973
야말로	-10.8976
똑같	-10.8979
▁흔들	-10.898
▁슬프네요	-10.8981
코드	-10.8981
▁돈벌	-10.8982
▁믿지	-10.8983
▁일찍	-10.8984
▁재미나게	-10.8984
아내	-10.8986
보시길	-10.8991
▁재밌기만	-10.8991
▁없었는데	-10.8995
▁새록새록	-10.8995
떨어지는	-10.8995
▁많음	-10.8996
▁이따구로	-10.8997
내용을	-10.8998
▁법정	-10.8999
▁로마	-10.9
▁보는동안	-10.9001
▁감동도없고	-10.9001
▁멀리	-10.9002
▁백배	-10.9004
▁이탈리아	-10.9005
▁잼나요	-10.9007
▁적당하다	-10.9009
▁믿을게	-10.9009
▁빌리	-10.9011
이젠	-10.9013
쉽	-10.9016
▁엘리	-10.9016
뿐인	-10.9019
▁흥미진진한	-10.9019
▁저리	-10.9019
질러	-10.9025
▁가라	-10.9025
▁시간은	-10.9026
는뎅	-10.9027
번에	-10.9027
으러	-10.9029
▁설명이	-10.9029
▁잔인하고	-10.9031
▁제목과	-10.9036
치기	-10.9038
▁특이한	-10.904
▁강하게	-10.9041
▁소재만	-10.9043
▁남아있는	-10.9043
▁이전	-10.9046
▁매력적이다	-10.9048
▁소리가	-10.905
▁정말정말	-10.905
▁말하려는	-10.9054
▁일주일	-10.9054
▁잘하네요	-10.9055
▁픽션	-10.9056
▁믿어	-10.9057
▁텐데	-10.9058
▁등장하는	-10.906
▁작품중	-10.9063
▁욕만	-10.9067
냄새	-10.9067
▁아리	-10.9068
▁찍지	-10.9068
쫌	-10.9068
▁주세요	-10.9068
히어로	-10.9068
땡	-10.9068
낭비	-10.9068
올려	-10.907
▁만화를	-10.9073
▁터지는	-10.9075
성룡	-10.9076
▁빠지게	-10.9078
하루	-10.908
▁의도를	-10.9086
▁안나오고	-10.9087
▁짤	-10.909
▁나왔음	-10.9093
▁되었습니다	-10.9095
전달	-10.9095
대한	-10.9097
스러울	-10.9097
▁이야기에	-10.9097
▁프리	-10.9097
▁붕	-10.91
▁남친	-10.9101
▁다른건	-10.9101
▁있어도	-10.9101
▁다시봤는데	-10.9102
부대	-10.9102
이란게	-10.9102
들로	-10.9103
▁넘어가	-10.9103
겨서	-10.9107
▁검색해	-10.9109
▁능력이	-10.9115
▁실사	-10.912
립니다	-10.912
▁어울리	-10.9123
▁자체도	-10.913
▁창피	-10.913
봤으면	-10.9131
▁뭣	-10.9132
▁세상의	-10.9133
▁나을	-10.9136
▁감독님의	-10.9136
▁없으니	-10.9137
▁최고인	-10.9139
실력	-10.9143
나면	-10.9145
▁망했	-10.915
Y	-10.9152
▁미야자키	-10.9152
▁장동건	-10.9152
▁엽문	-10.9152
▁거슬리	-10.9152
▁다세포소녀	-10.9152
▁이정재	-10.9153
▁모자란	-10.9153
▁색다르	-10.9153
▁성찰	-10.9154
▁독립	-10.9154
▁주연의	-10.9155
▁문득	-10.9155
▁종합	-10.9156
▁놀라울	-10.9156
드라마가	-10.9157
▁중학생	-10.9157
▁꺼져	-10.9159
▁신세계	-10.9159
▁않으면	-10.9159
왔습니다	-10.9162
▁기록	-10.9162
▁지루했음	-10.9163
느니	-10.9164
엿다	-10.9165
▁우승	-10.9167
▁살인자	-10.9168
▁한번씩	-10.9171
잡는	-10.9172
▁찰	-10.9172
▁의미없는	-10.9173
▁걸로	-10.9174
넘어	-10.9174
▁감동적임	-10.9177
▁배울	-10.9177
▁귀여워서	-10.9178
나오네	-10.9179
▁돋보인다	-10.9179
▁여유	-10.9179
▁내놓	-10.9181
▁별하나	-10.9181
떨어	-10.9183
▁현실에서	-10.9183
▁재밌게봤는데	-10.9186
▁경계	-10.9189
▁좋아하네요	-10.9189
▁g	-10.9189
▁다크	-10.9191
▁어설퍼	-10.9191
▁다크나이트	-10.9192
▁포함	-10.9193
▁이런것도	-10.9193
▁되어서	-10.9194
▁도라에몽	-10.9197
타령	-10.9197
▁니콜라스	-10.9197
▁고맙습니다	-10.9198
없지	-10.92
▁즉	-10.9202
▁유치하기	-10.9203
명을	-10.9203
액션영화	-10.9206
▁남자배우	-10.9207
▁이것저것	-10.9207
몰입도	-10.9208
▁따뜻함	-10.9208
▁토니	-10.9209
▁실화라는	-10.9211
▁전지현	-10.9213
▁이후에	-10.9217
▁산다	-10.9217
왔어요	-10.9218
▁선택한	-10.9219
▁인도영화	-10.922
▁말았어야	-10.9223
▁영화중에서	-10.9225
이해가	-10.9225
▁끝은	-10.9226
▁생각했던	-10.9226
영화관에서	-10.9229
▁초반에는	-10.9231
바른	-10.9232
▁덕	-10.9233
▁톱	-10.9234
▁틀어주	-10.9234
▁자위	-10.9245
▁흡입력	-10.9247
▁좋겠	-10.9249
▁진부함	-10.9249
세트	-10.9249
▁허무함	-10.9251
톱	-10.9257
▁쥬	-10.926
▁또보고싶	-10.926
▁까는	-10.926
있었는데	-10.926
▁와닿지	-10.9263
하잖아	-10.9264
▁캐스팅도	-10.9266
▁꿈과	-10.9268
바닥	-10.9268
다시봐도	-10.9269
되요	-10.927
▁지들	-10.9271
▁편의	-10.9272
▁예고편만	-10.9279
▁싶으면	-10.9281
겨울	-10.9282
▁아담	-10.9283
▁후반에	-10.9284
이구만	-10.9286
▁안되나	-10.9287
하구만	-10.9288
▁듬	-10.9289
▁본건	-10.929
▁보고싶네요	-10.929
▁남고	-10.9291
그자체	-10.9294
▁댄스	-10.9294
체가	-10.9298
▁존스	-10.9301
▁된다는	-10.9303
~♥	-10.9304
죽여	-10.9307
▁엔딩은	-10.9307
▁식상하다	-10.9307
시죠	-10.9308
사진	-10.9309
▁알게된	-10.9312
이면서	-10.9313
▁던져	-10.9316
저는	-10.9317
▁야하지도	-10.9317
드라마는	-10.9321
스러워	-10.9322
디스	-10.9325
▁쓰지	-10.9326
자막	-10.9333
▁자체로	-10.9334
▁25	-10.9338
대장	-10.9338
▁영화감독	-10.9338
▁의한	-10.9338
▁펼쳐	-10.9338
▁공포도	-10.9339
하더라도	-10.9341
핫	-10.9341
드래곤	-10.9341
▁소피마르소	-10.9341
빤	-10.9341
▁어우러진	-10.9341
▁두려움	-10.9341
▁키아누	-10.9341
푼	-10.9341
▁모성애	-10.9341
▁뚝뚝	-10.9341
▁레이첼	-10.9341
▁솔까	-10.9341
▁록키	-10.9341
▁일어날	-10.9341
▁오우삼	-10.9342
▁전도연	-10.9342
▁재발견	-10.9342
▁스토리라인	-10.9343
▁안성기	-10.9343
▁욕나온다	-10.9344
▁웃으며	-10.9345
▁마틴	-10.9345
▁빨간	-10.9346
▁낚여서	-10.9348
▁가볍지	-10.9348
▁출신	-10.935
ri	-10.935
하는구나	-10.9351
꺼라	-10.9353
학대	-10.9353
▁많은것을	-10.9354
▁찾을	-10.9355
▁시간과	-10.9357
▁틈	-10.9358
▁못본	-10.9362
▁필요없음	-10.9364
▁관객에게	-10.9364
▁도중에	-10.9365
동물	-10.9365
200	-10.9367
ic	-10.9367
▁잠들	-10.9367
▁워	-10.9368
▁따뜻해	-10.9368
안하고	-10.9368
▁8.5	-10.9368
좋겠다	-10.9368
▁탁월한	-10.9371
▁타인	-10.9374
▁인디	-10.9379
▁가시	-10.938
se	-10.9381
세상에	-10.9383
▁어디까지	-10.9384
▁분위기를	-10.9386
▁일생	-10.9386
▁유혹	-10.9391
▁존경합니다	-10.9392
▁좋아했던	-10.9392
▁실망스럽다	-10.9392
▁재미있어서	-10.9392
▁그지같은	-10.9392
▁영원	-10.9394
▁200	-10.9395
▁변신	-10.94
가아니라	-10.9402
▁더럽	-10.9407
21	-10.9407
▁좋아하고	-10.9407
▁가상	-10.9408
▁저희	-10.9409
▁솔직한	-10.941
▁가치를	-10.941
▁작가는	-10.9411
▁높네	-10.9416
▁추천한다	-10.9417
▁사라진	-10.9421
▁보는사람	-10.9422
▁해주세요	-10.9423
▁견	-10.9423
▁어쨌든	-10.9423
봤었는데	-10.9424
▁않아도	-10.9424
▁정상	-10.9424
▁달리는	-10.9424
▁이따구	-10.9425
▁자리	-10.9426
▁개같은	-10.9426
감성	-10.9427
▁유리	-10.9427
▁쏴	-10.9429
▁슬펐다	-10.9434
는것이	-10.9435
▁밀려	-10.9436
▁어이없고	-10.9438
▁왔는데	-10.9439
▁깍	-10.9439
▁혼자서	-10.9443
찰	-10.9447
▁호감	-10.9447
▁존재하는	-10.9448
신분	-10.945
뽀	-10.9454
▁않네	-10.9455
▁끔찍	-10.9455
▁한국어	-10.9456
cg	-10.9459
있을까	-10.946
어울리	-10.9463
▁재현	-10.9464
▁단역	-10.9465
▁싹	-10.9466
▁봤지	-10.9471
▁비하	-10.9475
하느라	-10.9477
▁아이들은	-10.9479
is	-10.9479
으려고	-10.948
▁노래를	-10.9487
▁상실	-10.9493
▁행복해	-10.9495
▁농	-10.9498
▁부르는	-10.9498
슬프다	-10.9508
하기는	-10.9508
▁죽일	-10.951
▁짱임	-10.9511
▁연기로	-10.9512
▁실패한	-10.9512
원래	-10.9512
▁애들도	-10.9514
나무	-10.9515
내놔	-10.9516
심을	-10.9517
드려	-10.9519
즐겁	-10.9522
▁불만	-10.9524
▁알수있	-10.9524
▁젊	-10.9525
별점	-10.9526
랏	-10.9526
쩍	-10.9528
▁고수	-10.9528
▁배우와	-10.953
▁아니냐	-10.953
랍	-10.9531
첩	-10.9532
컴	-10.9532
앨	-10.9533
ᄐ	-10.9533
▁고스란히	-10.9533
▁김명민	-10.9533
▁파워레인저	-10.9533
▁김민종	-10.9533
▁뮤직비디오	-10.9533
▁납치	-10.9534
▁스킵	-10.9534
습니당	-10.9534
▁정확히	-10.9534
▁초중반	-10.9535
▁고마운	-10.9535
없는데	-10.9535
▁죽기전에	-10.9536
페이스	-10.9536
▁연기한	-10.9536
▁고인의	-10.9537
▁의견	-10.9541
▁드문	-10.9541
▁이해하지	-10.9543
▁불행	-10.9543
▁제정신	-10.9544
▁안타깝네요	-10.9544
▁냄새	-10.9545
▁베이	-10.9545
▁구경	-10.9546
젠	-10.9548
▁예산	-10.9551
거든요	-10.9551
▁늙었	-10.9551
-.-	-10.9553
▁굉장한	-10.9558
▁한대	-10.9559
▁힘들게	-10.9561
▁십점	-10.9565
알았	-10.9567
▁아동용	-10.9568
▁피식	-10.9569
▁전투씬	-10.9571
▁흥미로웠	-10.9573
▁사라져	-10.9573
~~~~~~	-10.9573
쩌	-10.9573
▁조승우	-10.9574
집에서	-10.9574
▁괜	-10.958
▁훈훈하고	-10.9582
▁또봐도	-10.9583
▁다행이	-10.9583
죽어	-10.9584
▁힘내	-10.9585
▁잔잔하면서도	-10.9589
▁조기종영	-10.959
▁더빙판	-10.959
▁탄	-10.9592
▁바뀌	-10.9593
했냐	-10.9593
▁이쁘게	-10.9595
▁따라한	-10.9595
드라마를	-10.9598
▁젖	-10.9599
▁부담	-10.9604
▁하는것	-10.9604
▁걸어	-10.9606
등등	-10.9606
돌이	-10.9607
▁예술가	-10.961
▁평가를	-10.9612
▁틀리	-10.9614
▁이상으로	-10.9614
겠다고	-10.9615
▁주위	-10.9615
달까	-10.9618
▁아쉬워	-10.9619
른다	-10.9622
이였음	-10.9625
▁없는듯	-10.9626
이아니라	-10.9627
▁하나가	-10.9627
빼고는	-10.9627
▁대사는	-10.9627
▁매력있는	-10.9627
▁하니	-10.963
티가	-10.963
것도아니고	-10.9631
▁이딴영화	-10.9631
▁담고	-10.9633
이군	-10.9634
▁반갑	-10.9637
▁300	-10.9638
▁흐름이	-10.9644
윈	-10.9645
▁남았	-10.9649
▁싶지만	-10.9649
▁다큐를	-10.9651
V	-10.9651
~~!	-10.9652
특유의	-10.9657
▁졸작이다	-10.9659
▁이상함	-10.9659
tv	-10.966
▁애매	-10.966
슬퍼	-10.9661
▁할말을	-10.9663
▁생각나게	-10.9663
ᄏᄏᄏᄏᄏᄏᄏᄏᄏᄏᄏᄏᄏ	-10.9664
뎅	-10.9665
영웅	-10.9666
지않게	-10.9671
갖	-10.9674
▁생생	-10.9675
▁하나는	-10.9675
멋진	-10.9675
거같네요	-10.9678
재미있음	-10.968
줬으면	-10.9682
편으로	-10.9683
▁주원	-10.9684
건만	-10.9685
▁한숨	-10.9686
▁마누라	-10.9692
이런거	-10.9692
▁결과는	-10.9693
데로	-10.9693
▁옛날영화	-10.9693
▁마음속에	-10.9694
▁엿	-10.9694
묘사	-10.9696
▁밝	-10.9697
좋아서	-10.9703
어느	-10.9706
보고있어요	-10.9707
▁실상	-10.971
선수	-10.9718
▁헤어지	-10.972
▁드물	-10.9724
히히	-10.9725
▁본듯한	-10.9725
랭	-10.9725
뢰	-10.9727
▁개나	-10.9727
뻑	-10.9728
뜸	-10.9729
▁작품에	-10.9729
쇠	-10.9729
윽	-10.9729
▁똑바로	-10.9729
▁어둡고	-10.9729
▁팀버튼	-10.9729
밨	-10.9729
▁여기저기	-10.9729
▁태어난	-10.9729
▁저절로	-10.9729
▁심각한	-10.9729
▁잃어버린	-10.973
▁택시	-10.973
▁보여줌	-10.9731
▁어딜	-10.9731
▁몰락	-10.9732
▁감옥	-10.9733
▁이민기	-10.9733
▁2003	-10.9734
▁극찬	-10.9735
여야	-10.9736
▁확실	-10.9736
빠지고	-10.9737
있냐	-10.9738
▁울었습니다	-10.9739
▁영광	-10.9739
▁ᄏᄏᄏᄏᄏᄏᄏᄏᄏᄏᄏ	-10.9741
▁않았을까	-10.9742
▁머리를	-10.9743
▁나오다니	-10.9744
▁캐릭터와	-10.9747
▁낚였네	-10.975
괜찮은	-10.9752
▁조악	-10.9753
▁표정이	-10.9753
▁재미있다고	-10.9754
▁주목	-10.9755
▁없구나	-10.9755
쪽으로	-10.9755
▁지리	-10.9757
날때	-10.9758
많고	-10.9759
▁메시지가	-10.9761
▁안봐	-10.9761
▁초반부터	-10.9762
▁신경쓰	-10.9763
하던지	-10.9764
하시네요	-10.9764
을수가	-10.9766
보일	-10.9769
이기도	-10.9769
▁신데렐라	-10.9771
미는	-10.9771
▁하긴	-10.9778
▁재미있네	-10.978
▁대사를	-10.9782
▁힘내세요	-10.9783
▁여태까지	-10.9786
▁첨에	-10.9788
▁돌아오	-10.9789
▁베일	-10.9791
었다고	-10.9791
키스	-10.9792
id	-10.9795
▁퇴보	-10.9796
합니까	-10.9796
!!!!!!!	-10.9797
▁장난감	-10.9798
▁나참	-10.9804
2005	-10.9805
▁불쾌한	-10.9806
동생	-10.9806
▁2013	-10.9806
같네	-10.9811
▁수준이하	-10.9812
라이브	-10.9817
▁클라스	-10.9817
▁일본이	-10.9819
▁꿈꾸는	-10.982
▁우리나라에	-10.9822
▁발연기에	-10.9823
▁꺼내	-10.9824
▁나은듯	-10.9824
▁의식	-10.9826
▁폰	-10.9827
씩이나	-10.9827
어른	-10.983
▁이혼	-10.9834
높아	-10.9835
▁살아있	-10.9835
▁귀여	-10.9836
갈수	-10.9836
▁낭만	-10.9836
갔는데	-10.9837
모습이	-10.9837
▁경기	-10.9837
▁아니네	-10.9837
님은	-10.9838
▁허접하다	-10.9842
▁했을	-10.9844
▁흘러가	-10.9848
▁기억을	-10.9849
보라	-10.9849
▁재주	-10.9851
▁잘했다	-10.9852
▁계기	-10.9852
까지만	-10.9853
▁티가	-10.9853
꼽	-10.9855
▁못보겠	-10.9858
▁여운도	-10.9859
탐	-10.9859
병맛	-10.986
▁대상	-10.986
챙겨	-10.9861
▁않았음	-10.9862
먹은	-10.9862
▁결말까지	-10.9865
▁중반부	-10.9867
il	-10.9867
▁곡	-10.9869
가슴이	-10.987
아니었	-10.9871
억울	-10.9871
먼저	-10.9872
돈으로	-10.9875
▁영화제목	-10.9875
▁평소	-10.9877
▁없을까	-10.9878
엉성	-10.9881
그렇	-10.9881
▁상황에	-10.9882
ma	-10.9882
▁말라	-10.9882
▁아이와	-10.9887
본게	-10.9887
ᄏᄏᄏᄏᄏᄏᄏᄏᄏ	-10.9889
▁만세	-10.9889
하나로	-10.9893
▁어린이들	-10.9894
정도의	-10.9898
▁하는건	-10.99
▁개똥	-10.9906
▁하지마라	-10.9907
▁비중	-10.991
▁복잡	-10.9913
평점을	-10.992
오고	-10.9921
스토리는	-10.9921
이영화는	-10.9922
읍	-10.9928
팍	-10.9929
▁미장센	-10.9929
▁엉터리	-10.9929
펠	-10.9929
샷	-10.9929
▁임청하	-10.9929
▁정당화	-10.9929
▁온몸	-10.9931
▁간첩	-10.9931
▁경의를	-10.9931
▁잔잔하지만	-10.9933
▁올드	-10.9934
▁실패작	-10.9936
교육	-10.9937
▁애국심	-10.9938
▁잡고	-10.9938
▁같네	-10.9939
▁유령	-10.9939
▁될것	-10.994
ve	-10.9941
▁것들을	-10.9941
▁없었으면	-10.9942
▁하던데	-10.9943
약간	-10.9945
▁대실망	-10.9945
▁중간부터	-10.9946
▁카피	-10.9946
▁사람마다	-10.9947
▁퀄리티가	-10.9947
▁사랑도	-10.9948
되나	-10.9949
▁겉멋만	-10.9952
▁공포영화가	-10.9953
▁임신	-10.9953
▁잼없음	-10.9953
▁돋보이	-10.9954
▁애가	-10.9954
▁봐야한다	-10.9955
▁정통	-10.9956
▁화려	-10.9956
▁찬양	-10.9956
▁교훈이	-10.9956
▁아류	-10.9959
▁에러	-10.9959
▁흘	-10.9961
▁무서워서	-10.9962
겠냐	-10.9962
▁t	-10.9963
아리	-10.9963
▁뽑아	-10.9965
▁낫지	-10.9973
▁공식	-10.9973
▁흐르	-10.9974
곳이	-10.9975
▁보느니	-10.9975
▁나왔는데	-10.9976
내서	-10.9977
았습니다	-10.9978
▁외치	-10.998
▁최민식	-10.9983
▁의외의	-10.9984
▁만나는	-10.9984
▁시나리오도	-10.9986
▁느낌도	-10.9987
▁생각한	-10.9991
▁지배	-10.9991
인척	-10.9992
▁그시절	-10.9994
▁보신	-10.9996
▁돌려줘	-10.9997
▁액션의	-10.9997
바보	-11
등급	-11.0001
▁명작이네요	-11.0004
볼려고	-11.0005
▁참고로	-11.0005
남편	-11.0006
▁선동영화	-11.0009
▁애국	-11.001
거같	-11.0012
앞으로	-11.0012
점만점	-11.0012
▁주인	-11.0012
▁채우	-11.0016
하곤	-11.0018
▁몸을	-11.002
▁편안	-11.0021
▁안되서	-11.0024
▁산만	-11.003
▁다음으로	-11.003
▁넘기	-11.0033
▁저기	-11.0033
▁밑도	-11.0034
▁그지같	-11.0034
▁터지	-11.0039
▁한숨만	-11.0039
▁조폭영화	-11.0041
▁스토리지만	-11.0043
폭탄	-11.0044
다들	-11.0047
▁보러가	-11.0049
▁않았나	-11.0049
▁가을	-11.0052
▁빨아	-11.0052
▁지루함의	-11.0052
줘도	-11.0057
보길	-11.0058
▁못하겠	-11.0063
감동적이	-11.0064
▁이뻐	-11.0065
첫	-11.0066
▁최하	-11.0066
볼수있	-11.0067
H	-11.0068
싶네요	-11.0068
치를	-11.0068
▁봤었다	-11.0073
▁ᄏᄏᄏᄏᄏᄏᄏᄏᄏᄏ	-11.0074
▁나쁘	-11.0074
▁많지	-11.0079
▁더럽다	-11.0081
페이지	-11.0081
기법	-11.0085
▁써야	-11.0088
▁나온거	-11.0092
▁들어도	-11.0094
부분은	-11.0096
▁이유로	-11.0097
▁다음편	-11.0097
▁라스트	-11.0097
▁재밋는데	-11.0097
재미는	-11.0101
정보	-11.0101
▁좋아한다	-11.0102
봤어	-11.0102
유머	-11.0105
왓	-11.0106
▁속은	-11.0108
...;;;	-11.0109
▁복수를	-11.011
략	-11.0111
다리	-11.0111
▁지루함이	-11.0116
▁하이	-11.0121
말로	-11.0126
말고는	-11.0128
▁남자를	-11.0131
▁만들어준	-11.0132
▁가려	-11.0133
핀	-11.0133
쯔	-11.0133
팽	-11.0133
▁간간히	-11.0133
▁곱씹	-11.0133
꽁	-11.0133
닦	-11.0133
▁신세경	-11.0133
▁오인혜	-11.0133
▁ᄇᄉ	-11.0133
▁함부로	-11.0133
지경	-11.0135
▁이해안가	-11.0135
▁모티브	-11.0135
▁7.5	-11.0135
▁말아먹은	-11.0135
://	-11.0136
▁조용히	-11.0136
▁절제된	-11.0136
▁2004	-11.0137
▁ᄅᄋ	-11.0138
▁역쉬	-11.0138
▁걸린	-11.0139
▁활용	-11.0139
▁억지설정	-11.0139
▁만듬	-11.0141
▁그지없	-11.0141
▁노튼	-11.0142
▁불법	-11.0144
아쉽다	-11.0145
▁이나영	-11.0145
▁자본	-11.0145
▁들여	-11.0146
▁배경도	-11.0146
▁차이가	-11.0146
▁밀어	-11.0146
▁중반부터	-11.0147
▁예고편이	-11.0147
▁분명히	-11.0149
▁종영	-11.0151
▁아니네요	-11.0152
▁엉성하다	-11.0152
▁없군	-11.0153
번이나	-11.0153
▁칸	-11.0154
▁울었던	-11.0154
▁굴	-11.0155
싶을때	-11.0155
▁표현했다	-11.0159
▁웃기네	-11.0163
▁개독	-11.0164
▁불과	-11.0165
자꾸	-11.0166
찍는	-11.0167
다는걸	-11.0167
▁캐릭터의	-11.0171
▁따분	-11.0173
▁부른	-11.0178
시리즈중	-11.0181
▁것인지	-11.0181
▁아쉬웠지만	-11.0182
세대	-11.0184
▁사랑으로	-11.0184
▁목숨	-11.0186
▁명작이라	-11.0187
▁쏟아	-11.0189
▁뻔하	-11.019
▁길다	-11.0191
뿐이고	-11.0191
▁아련	-11.0193
70	-11.0195
▁시원한	-11.0196
▁될듯	-11.0197
▁있나요	-11.0198
▁소지섭	-11.02
해야하는	-11.0203
▁장르의	-11.0205
▁초딩이	-11.0206
빼	-11.0206
▁저게	-11.0206
▁비현실적인	-11.0206
▁물건	-11.0208
▁몰랐는데	-11.0208
▁나오는거	-11.021
▁다운로드	-11.0212
▁섹	-11.0212
할텐데	-11.0212
드릴	-11.0214
이었고	-11.0218
▁몰입되	-11.0223
배는	-11.0231
▁뛰	-11.0241
▁메세지도	-11.0243
듣	-11.0243
부르	-11.0243
▁맘이	-11.0246
la	-11.0247
▁더럽고	-11.0253
▁기대에	-11.0253
지않는다	-11.0257
▁첨이네	-11.0257
▁광팬	-11.0257
▁조금씩	-11.0258
▁웃음과	-11.0259
같애	-11.0262
▁이준	-11.0263
화를	-11.0264
▁보진	-11.0264
▁꿈이	-11.0265
깐	-11.0266
▁과정을	-11.0266
으려	-11.027
▁제시	-11.0271
▁남았다	-11.0273
하는짓	-11.0274
▁기대되는	-11.0279
정권	-11.0279
뽑	-11.0281
귀여워	-11.0281
de	-11.0282
어야지	-11.0282
▁보일	-11.0284
게만드는	-11.0284
마무리	-11.0285
뚝	-11.0285
▁배가	-11.0291
▁그래픽이	-11.0293
스틴	-11.0296
▁미이라	-11.0297
▁연출을	-11.03
▁위험한	-11.0303
▁성룡이	-11.0303
▁싫은	-11.0304
▁그들은	-11.0305
▁적이	-11.0306
스티	-11.0307
깝	-11.0311
때가	-11.0314
제작비	-11.0314
▁감안	-11.0314
▁k	-11.0315
▁>	-11.0315
▁얘들	-11.032
▁김성	-11.0321
감은	-11.0322
▁철학적	-11.0322
조심	-11.0323
덕후	-11.0325
맞은	-11.0327
▁오글거려	-11.0328
앞에	-11.0331
찾기	-11.0331
▁심심한	-11.0332
만족	-11.0334
▁설정과	-11.0338
▁고딩	-11.034
썸	-11.0342
넷	-11.0342
▁웹툰	-11.0342
▁톰크루즈	-11.0342
룸	-11.0342
▁에일리언	-11.0342
▁한쿡영화	-11.0342
▁죽었다	-11.0342
▁침묵	-11.0342
▁다니엘	-11.0342
▁슈렉	-11.0342
▁끊임없	-11.0342
▁미치도록	-11.0342
▁사로잡	-11.0342
▁best	-11.0342
▁증말	-11.0343
▁뛰쳐	-11.0343
▁눈요기	-11.0344
▁초능력	-11.0345
사라	-11.0347
▁기대됩니다	-11.0347
▁출현	-11.0347
▁응원합니다	-11.0347
▁감흥이	-11.0348
▁공포영화는	-11.0349
▁존잼	-11.0351
▁물씬	-11.0352
▁볼만해요	-11.0353
▁넘어선	-11.0354
볼까	-11.0355
▁우왕	-11.0355
▁특수	-11.0357
▁스릴이	-11.0357
▁잘생긴	-11.0357
▁공감가는	-11.0357
것일까	-11.0357
싶은	-11.0358
▁와닿는	-11.036
▁보소	-11.0361
▁나빠	-11.0362
▁경제	-11.0364
▁성경	-11.0364
▁먹어	-11.0365
▁영상미는	-11.0366
영환줄	-11.0366
▁기분좋은	-11.0366
▁뭉	-11.0368
▁거대한	-11.0369
▁좋아해요	-11.0372
▁미국이	-11.0372
좋아하는데	-11.0372
▁심히	-11.0372
▁시기	-11.0372
▁전락	-11.0376
▁it	-11.0377
▁남발	-11.0377
▁만화가	-11.0381
▁최고였습니다	-11.0383
▁보고싶어요	-11.0383
▁떠들	-11.0384
들어가	-11.0384
할수도	-11.0385
봣던	-11.0387
▁애니가	-11.0388
일세	-11.0389
▁부끄러운	-11.0392
▁명성	-11.0393
▁김태희	-11.0394
▁in	-11.0395
우드	-11.0395
▁열자	-11.0396
주인공이	-11.0398
▁시선으로	-11.04
▁만들려고	-11.0401
▁강제	-11.0401
▁값	-11.0405
▁주제는	-11.0405
▁아까워요	-11.0406
▁명성을	-11.0407
많다	-11.0409
▁당하는	-11.0409
전개가	-11.0413
▁재미있었던	-11.0414
▁영화평	-11.0414
▁스피드	-11.0415
▁만들었네	-11.0417
▁돈과	-11.0418
▁초딩들	-11.0422
▁막장으로	-11.0422
▁아침에	-11.0422
▁스타일이	-11.0423
▁본영화중	-11.0429
▁할배	-11.043
▁매력은	-11.0431
▁성유리	-11.0434
▁영화란	-11.0436
▁전편의	-11.0437
▁지루하기만	-11.0441
▁반도	-11.0447
소장	-11.0448
▁느끼지	-11.045
▁보고있는	-11.0451
▁심정	-11.0452
경이	-11.0453
▁우리나라의	-11.0454
써요	-11.0454
할정도	-11.0454
▁이영화보고	-11.0454
▁아니라서	-11.0461
무지	-11.0466
▁안된	-11.0467
연애	-11.047
장한	-11.0472
해놓고	-11.0476
본듯	-11.0478
외엔	-11.0479
!!!!!!!!	-11.0481
겐	-11.0482
▁재밌었고	-11.0487
▁모르나	-11.0487
▁아름다웠	-11.0488
▁그런건	-11.0489
주는데	-11.0489
줄알았	-11.0489
셋	-11.0489
▁기억될	-11.0491
▁셀	-11.0493
▁영화내내	-11.0494
▁신기한	-11.0495
핵	-11.0498
코메디	-11.0498
▁졸려	-11.05
저질	-11.05
▁정치적	-11.0506
만들고	-11.0508
장면도	-11.0508
존재	-11.0508
▁돈만	-11.0513
▁스케일이	-11.0513
▁잼씀	-11.0517
▁다녀	-11.0517
스코	-11.0519
▁들어오	-11.0521
▁후한	-11.0524
▁지적	-11.0525
▁장면과	-11.0525
▁짱나	-11.0525
좋은데	-11.0526
▁성우가	-11.0526
스케	-11.0531
때메	-11.0532
▁느리	-11.0534
웃겼	-11.0534
없어요	-11.0535
장에서	-11.0536
이쁘고	-11.0542
▁재밌는영화	-11.0545
500	-11.0545
▁미리	-11.0547
선생	-11.0548
마이	-11.0549
▁운동	-11.0549
것같습니다	-11.0549
▁망쳐	-11.0554
깡	-11.0554
▁송혜교	-11.0555
▁양동근	-11.0555
▁에드워드	-11.0555
긔	-11.0555
▁KBS	-11.0555
▁MBC	-11.0555
▁매끄럽지	-11.0555
▁베트남	-11.0555
▁멘붕	-11.0555
떄문에	-11.0555
▁사기꾼	-11.0555
▁정신나간	-11.0556
▁즐겁고	-11.0556
▁뉴욕	-11.0556
▁가해자	-11.0556
▁혹평	-11.0556
▁그들만의	-11.0556
▁짐승	-11.0557
▁접근	-11.0558
▁돈낭비	-11.0559
▁기념	-11.0559
▁별한개도	-11.056
▁아이러니	-11.0561
▁아까웠던	-11.0561
▁그럼에도	-11.0562
▁더더욱	-11.0562
▁젊음	-11.0563
하지않는	-11.0563
▁움직이	-11.0564
▁me	-11.0565
▁씨발	-11.0565
▁내겐	-11.0566
▁분위기에	-11.0567
▁대표적인	-11.0567
들이랑	-11.0569
▁집단	-11.0571
좀비	-11.0571
▁어케	-11.0571
▁볼만했음	-11.0572
▁일탈	-11.0572
▁묵	-11.0572
▁중학교때	-11.0572
시에	-11.0573
▁먹먹해	-11.0573
영화중에	-11.0575
▁지루하네	-11.0577
▁일본영화는	-11.0577
▁말이필요없는	-11.0578
▁받아들이	-11.0579
▁되기	-11.058
본영화중	-11.0581
▁괜찮네	-11.0581
주의자	-11.0583
▁시작한	-11.0584
▁리메이크작	-11.0584
▁다섯	-11.0587
▁터져	-11.0588
변화	-11.0589
▁깜	-11.0594
▁작품들	-11.0599
▁부럽다	-11.0599
▁느리고	-11.06
▁답답해서	-11.0602
▁잘보고	-11.0602
▁예쁘게	-11.0602
겁니까	-11.0604
▁인간적인	-11.0604
▁무한	-11.0605
▁The	-11.0606
▁장애	-11.0607
▁킬링타임으로	-11.0607
▁볼거	-11.0608
라며	-11.0609
작렬	-11.061
▁긴박감	-11.0611
▁안타깝고	-11.0611
▁쏙	-11.0612
왔던	-11.0612
op	-11.0613
▁유지태	-11.0615
▁하던가	-11.0616
▁담아내	-11.0617
▁마케팅	-11.0618
▁처음이네요	-11.0618
장면에서	-11.0619
싶어서	-11.0623
조각	-11.0624
▁머리에	-11.0626
▁때도	-11.0627
아이가	-11.063
▁많지만	-11.0631
▁모여	-11.0636
▁사이에서	-11.064
뛰	-11.0642
▁화려하고	-11.0642
▁아쉽긴	-11.0644
▁오글거리	-11.0644
▁알게되	-11.0645
▁허무하게	-11.0647
▁블	-11.0647
유발	-11.0647
▁무서울	-11.0648
▁갔는데	-11.0648
▁외국영화	-11.0651
부턴	-11.0653
▁지가	-11.0654
▁게임을	-11.0654
만든영화	-11.0654
▁머가	-11.0654
앗다	-11.0654
▁반전영화	-11.0657
▁한번쯤은	-11.0657
▁정이	-11.0658
▁꿈에	-11.0659
▁멋잇	-11.0659
순위	-11.0661
▁사라지	-11.0661
▁--	-11.0665
나왔다	-11.0666
▁엉성함	-11.0668
라기	-11.0674
▁꿈꾸	-11.0674
▁저거	-11.0677
로드	-11.068
▁아끼	-11.0682
반전이	-11.0683
▁꼽을	-11.0685
▁코미디는	-11.0686
▁극장판은	-11.0686
▁남는건	-11.0687
▁자유를	-11.0688
었을텐데	-11.069
▁본적이	-11.069
▁인간들이	-11.0691
끝에	-11.0693
▁만들기도	-11.0696
▁뚫	-11.0696
▁베리	-11.0698
칭	-11.07
▁짱짱맨	-11.0701
나오냐	-11.0701
기준	-11.0703
▁강시	-11.0703
▁반전의	-11.0703
나보네	-11.0708
나옵니다	-11.0711
애기	-11.0712
▁뻔뻔	-11.0713
ᅢ	-11.0718
▁빛이	-11.0718
벤	-11.072
▁이정도로	-11.0721
아줌마	-11.0721
진정한	-11.0723
▁주제도	-11.0724
유쾌	-11.0726
▁일본판	-11.0726
▁상영시간	-11.0727
좋았어요	-11.0729
▁개인적으로는	-11.073
▁보셈	-11.0731
▁잠자	-11.0731
같았음	-11.0732
▁잇는	-11.0735
알바들	-11.0741
us	-11.0743
티비에서	-11.0743
하듯	-11.0745
최고의영화	-11.0748
볼만한	-11.0749
겠군	-11.075
▁전쟁이	-11.075
▁킬링타임용도	-11.0751
▁쩌네	-11.0752
올림	-11.0753
짓거리	-11.0753
영상미	-11.0754
▁집어	-11.0754
닮	-11.0754
뷰	-11.0757
죽이고	-11.0759
라는데	-11.076
▁수치	-11.0761
전체	-11.0762
롯	-11.0768
▁마시	-11.077
혐	-11.0771
▁잘봤	-11.0771
뱅	-11.0772
#	-11.0772
얄	-11.0772
넼	-11.0772
▁끝판왕	-11.0772
▁맙시다	-11.0772
▁엉덩이	-11.0772
▁용두사미	-11.0772
뱉	-11.0772
쌩	-11.0772
▁인터뷰	-11.0772
▁양조위	-11.0772
▁뜨거운	-11.0772
쭈	-11.0772
▁구역질	-11.0772
▁이연희	-11.0772
▁특징	-11.0773
시오	-11.0774
▁윌	-11.0775
▁바꾼	-11.0776
재밌네요	-11.0776
분만	-11.0777
창있네	-11.0777
▁태양	-11.0778
▁몇번이고	-11.0779
▁여튼	-11.0779
▁있겠지	-11.0782
▁놔	-11.0784
▁몇번이나	-11.0785
▁표정연기	-11.0785
▁원표	-11.0786
▁해도해도	-11.0789
▁못생겼	-11.0791
▁공감대	-11.0795
▁발레	-11.0796
▁남기고	-11.0797
▁지어	-11.0799
▁알겠지만	-11.0804
▁존내	-11.0806
▁별로였음	-11.0806
▁총을	-11.0808
▁드러내	-11.0808
▁28	-11.0809
▁총질	-11.081
▁인종차별	-11.0812
원주고	-11.0813
나쁜	-11.0814
▁무어	-11.0814
이쁘	-11.0816
이건뭐	-11.082
▁예술성	-11.082
▁차마	-11.0821
▁연상	-11.0822
▁아프리카	-11.0824
급도	-11.0826
▁봐줄	-11.0827
▁아닌가요	-11.0827
▁포켓몬	-11.083
▁생각해서	-11.0831
▁두분	-11.0832
▁작품성이	-11.0832
쳐먹	-11.0837
▁메리	-11.0837
▁이해되	-11.0839
하지마세요	-11.084
▁존재한다	-11.0842
▁재미있었고	-11.0842
연기자	-11.0844
▁오글거려서	-11.0844
▁왓	-11.0845
▁꼽는	-11.0846
▁런닝맨	-11.0849
▁미소를	-11.0855
▁장근석	-11.0855
재미없고	-11.0856
▁메인	-11.0859
▁나쁜놈	-11.086
▁안들어	-11.0861
기간	-11.0861
므로	-11.0863
▁불편함	-11.0866
남겨	-11.0866
▁정점	-11.0866
공주	-11.0868
당하는	-11.087
▁조조	-11.0873
하고픈	-11.088
이유는	-11.088
녀석들	-11.0882
▁틈이	-11.0883
겠는가	-11.0884
구리	-11.0884
▁사람들도	-11.0887
▁끝날때	-11.0888
ᅩ	-11.0891
▁그럴듯	-11.0891
▁중반까지	-11.0892
졌던	-11.0894
▁최대의	-11.0894
사고	-11.0895
▁내용으로	-11.0898
▁롤	-11.0899
실화라	-11.0902
▁있어보이	-11.0902
▁동정	-11.0904
하우스	-11.0904
▁태도	-11.0907
▁길고	-11.0907
질수	-11.0914
▁허접함	-11.0916
▁이야기도	-11.0917
▁달달한	-11.0919
였다니	-11.0919
▁최후	-11.0921
▁뭔가요	-11.0925
버려서	-11.0926
▁아쉽고	-11.0927
취향	-11.093
▁뗄수	-11.0931
죽는줄	-11.0935
관을	-11.0939
▁잼있어	-11.0939
석이	-11.094
▁압도	-11.0942
퇴	-11.0943
▁말았	-11.0943
하하하	-11.0943
▁무서웠다	-11.0947
낙	-11.0948
넌	-11.0948
▁뿌리	-11.0949
괜히	-11.095
▁소재에	-11.0952
필름	-11.0952
츄	-11.0953
▁부럽	-11.0953
▁새끼들	-11.0955
없게	-11.0958
영환데	-11.0959
▁헛웃음	-11.0961
만들엇	-11.0961
스와	-11.0963
교훈	-11.0963
됐는데	-11.0965
마냥	-11.0965
▁봣다	-11.0969
▁행복을	-11.097
달러	-11.0974
보느니	-11.0975
▁만으로도	-11.0976
et	-11.0977
▁극단적	-11.0979
▁극한	-11.0981
▁지나서	-11.0983
▁모습과	-11.0984
▁다시보고싶은	-11.0988
▁맞게	-11.099
▁누워	-11.0992
그게	-11.0992
▁해야하나	-11.0993
그것도	-11.0994
▁ocn	-11.0994
’	-11.0994
▁보냅니다	-11.0994
▁슬래셔	-11.0994
▁쌩뚱맞	-11.0994
▁임권택	-11.0994
꺄	-11.0994
엣	-11.0994
▁오타쿠	-11.0994
▁닥터	-11.0994
▁일요일	-11.0994
▁감수성	-11.0994
▁단체로	-11.0995
▁생략	-11.0995
▁졸업작품	-11.0995
▁적나라하	-11.0997
▁대표작	-11.0998
▁빠져드는	-11.0998
▁미흡	-11.0998
▁비싼	-11.0998
였으나	-11.0998
집중	-11.0999
▁계획	-11.1002
▁성숙	-11.1003
▁신나게	-11.1003
▁우습	-11.1003
▁지났지만	-11.1003
따윈	-11.1004
뜬금	-11.1004
▁어쩌라고	-11.1005
▁안에서	-11.1006
▁총알	-11.1006
▁언급	-11.1007
▁어이없어서	-11.1008
▁아쉬	-11.1009
▁서극	-11.1011
▁어렸을적	-11.1012
▁너무재밌어요	-11.1013
부분도	-11.1013
▁라이	-11.1013
▁나타내	-11.1014
클럽	-11.1014
▁안했는데	-11.1015
척하는	-11.1015
▁축	-11.1017
▁슬퍼서	-11.1018
침몰	-11.1018
▁마초	-11.1019
▁남아있	-11.102
▁짜증났	-11.102
▁남자라면	-11.1021
친구들	-11.1021
▁괜찮던데	-11.1022
▁인물이	-11.1022
▁초등학교때	-11.1023
▁똥을	-11.1024
▁실소	-11.1024
▁보시	-11.1025
▁이야기들	-11.1025
▁최고였어요	-11.1025
중간	-11.1027
이유가	-11.1027
영화자체는	-11.1028
▁재밌당	-11.103
신분들	-11.103
네유	-11.1031
▁되었는데	-11.1033
▁강렬	-11.1033
▁2010	-11.1034
여동생	-11.1036
▁참신하고	-11.104
어어	-11.1041
군데	-11.1042
오글	-11.1043
▁화려함	-11.1043
▁때문이다	-11.1043
ᄏᄏᄏᄏᄏᄏᄏᄏ	-11.1043
▁나한테	-11.1044
▁모든것을	-11.1044
▁다시보게	-11.1044
이었지만	-11.1045
▁만나고	-11.1045
▁엄마랑	-11.1046
▁액션에	-11.1047
▁실망스럽	-11.1047
기때문에	-11.1047
▁카메론	-11.1048
▁공중파	-11.1048
▁어려웠	-11.1049
▁미국판	-11.105
▁글쎄요	-11.1051
▁신민아	-11.1054
▁못만들	-11.1054
▁니네	-11.1057
▁케이지	-11.1058
▁원작소설	-11.1062
▁영화계의	-11.1063
줬는데	-11.1066
▁방법이	-11.1066
▁화면이	-11.1068
▁구원	-11.1068
▁후회함	-11.1068
씬에서	-11.107
▁철학적인	-11.1071
▁똑같다	-11.1071
▁개봉을	-11.1072
▁초기	-11.1076
▁앙	-11.1078
▁계기가	-11.1082
▁쩔	-11.1083
▁아카데미	-11.1085
▁꼽	-11.1086
▁뗄	-11.1086
▁난국	-11.1087
해줘	-11.1088
▁검은	-11.1088
▁선수	-11.1088
졸라	-11.1088
▁말만	-11.109
▁소름돋는	-11.1094
▁웃게	-11.1096
지못한	-11.1098
▁달아	-11.1102
▁당신들	-11.1105
포스	-11.1106
▁충실한	-11.1107
인거같다	-11.1111
잇고	-11.1112
심리	-11.1114
▁울게	-11.1117
여성	-11.1118
▁코드가	-11.1119
▁쓰렉	-11.112
로인해	-11.112
▁상영관이	-11.1121
잤	-11.1122
해놓은	-11.1123
▁일어나는	-11.1123
놔	-11.1123
감동적인	-11.1124
▁후기	-11.1125
▁재밌지도	-11.1129
▁할지	-11.113
▁죽인다	-11.1131
♡♡	-11.1131
사람을	-11.1132
▁상상을	-11.1132
▁분위기도	-11.1133
▁지지	-11.1134
하리	-11.1136
▁던지는	-11.1136
▁강력추천	-11.1137
▁보이지만	-11.1138
▁환상적	-11.1138
보영	-11.1139
▁현실성이	-11.1139
▁감동적으로	-11.1141
▁메이	-11.1142
장르를	-11.1144
▁상식	-11.1144
▁구멍	-11.115
▁배경과	-11.1151
▁있으	-11.1151
보지마라	-11.1153
▁건질	-11.1156
해야한다	-11.1162
혀서	-11.1163
봣음	-11.1164
못할	-11.1164
▁엄마의	-11.1166
줘라	-11.1167
▁대비	-11.1168
-_	-11.1168
▁기대감	-11.117
▁조지	-11.1171
▁되돌아	-11.1171
라기보다	-11.1175
재미잇	-11.1176
묻	-11.1176
▁나온다고	-11.1177
▁암울	-11.1179
▁서사	-11.1179
젖	-11.1183
웬	-11.1184
▁돈은	-11.1184
시간낭비	-11.1185
봤더니	-11.1185
▁작년	-11.1188
말곤	-11.1189
극장판	-11.119
대단히	-11.1191
..."	-11.1192
▁예술이	-11.1194
▁있는듯	-11.1194
테러	-11.1196
바다	-11.12
돌리	-11.1202
기만하고	-11.1202
▁향해	-11.1205
▁봐야겠다	-11.1205
돼지	-11.1206
중반	-11.1207
▁되는거	-11.1207
▁거냐	-11.1208
켓	-11.1209
▁저주	-11.1212
보여주는	-11.1213
비교	-11.1213
밧	-11.1215
▁그립	-11.1216
안타까	-11.1217
▁주제에	-11.1218
▁증명	-11.1218
▁엽기	-11.1218
▁섹시한	-11.1221
퀄	-11.1221
▁찝찝한	-11.1221
▁펭귄	-11.1221
댕	-11.1221
▁송지효	-11.1221
▁주상욱	-11.1221
흙	-11.1221
▁김강우	-11.1221
▁영화자체가	-11.1221
▁강지환	-11.1221
▁엉엉	-11.1221
▁핸드폰	-11.1221
▁임수정	-11.1222
▁몬스터	-11.1222
▁담아낸	-11.1222
▁퍼즐	-11.1222
▁황홀	-11.1222
^.^	-11.1223
▁은퇴	-11.1223
▁고찰	-11.1223
▁용가리	-11.1223
▁잃어	-11.1223
▁크리스찬	-11.1223
▁세상은	-11.1223
▁기분좋게	-11.1223
▁자본주의	-11.1224
현재	-11.1224
▁가끔씩	-11.1224
▁신념	-11.1226
다니고	-11.1226
▁추락	-11.1227
▁출발	-11.1229
▁지들끼리	-11.1229
▁신파극	-11.1229
홍보	-11.1231
▁여왕	-11.1233
▁미안하지만	-11.1233
▁도둑	-11.1233
지금까지	-11.1234
점대라니	-11.1234
버젼	-11.1234
등장	-11.1236
▁깔끔하고	-11.1238
▁모르겠는데	-11.1238
▁요약	-11.1239
▁도통	-11.1243
▁어째서	-11.1243
▁요소들	-11.1244
▁마녀	-11.1245
겨운	-11.1245
▁젊은이들	-11.1245
▁지존	-11.1245
▁고발	-11.1246
▁말해주는	-11.1246
▁사실적으로	-11.1246
▁순위	-11.125
▁어설프	-11.125
▁질질끌	-11.1252
▁상관	-11.1253
▁그런영화	-11.1253
▁재밌게본	-11.1254
뒤로	-11.1256
▁훌륭함	-11.1257
▁자극하는	-11.1257
▁영화라는게	-11.1258
▁볼만하네요	-11.1259
27	-11.126
▁뻔하지만	-11.1261
▁별루다	-11.1262
▁부디	-11.1263
프리	-11.1264
씨를	-11.1264
▁둔	-11.1265
▁슬프지만	-11.1266
▁있는거	-11.1268
▁몽환적인	-11.1269
▁해피	-11.127
엿음	-11.127
▁오락성	-11.127
▁어린이용	-11.1273
▁잘함	-11.1274
▁좋아하시는	-11.1274
▁망쳤다	-11.1275
▁구리다	-11.1275
▁순정	-11.1275
▁홍금보	-11.1276
▁환타지	-11.1276
▁존중	-11.1277
▁확실한	-11.1282
미래	-11.1283
▁기어	-11.1284
▁재미있지	-11.1287
▁연기까지	-11.1288
▁하려는	-11.1288
▁욕하는	-11.1288
▁다니는	-11.1288
인권	-11.1289
▁사회에	-11.1289
던영화	-11.1291
▁위대함	-11.1291
▁스릴러를	-11.1292
때까지	-11.1292
▁생각하지	-11.1294
▁교감	-11.1294
▁잘살	-11.1294
▁받아서	-11.1297
▁개잼	-11.1298
▁해요	-11.1303
▁고급	-11.1304
채널에서	-11.1305
▁찾고	-11.1306
▁지났	-11.1306
ᄏᄏᄏᄏᄏᄏᄏᄏᄏᄏᄏᄏ	-11.1307
▁걷	-11.1307
▁진화	-11.1311
다시보고싶	-11.1312
▁놀랍	-11.1313
불가	-11.1314
▁재밋엇	-11.1315
▁성우들	-11.1321
봣습니다	-11.1322
▁훌륭하고	-11.1323
저도	-11.1323
해줌	-11.1326
▁죽을뻔	-11.1328
끼고	-11.1329
▁땀	-11.133
사기	-11.1334
▁파이팅	-11.1334
▁속편이	-11.1343
▁충격을	-11.1345
▁쓰레기임	-11.1347
▁분위기와	-11.1348
▁예뻐	-11.1353
▁우리들의	-11.1354
▁좋아하게	-11.1356
▁만들려	-11.1358
▁ᄃ	-11.1358
▁나이에	-11.136
▁턱	-11.136
호가	-11.1362
▁남자와	-11.1364
던데요	-11.1365
▁먹을	-11.1371
▁마주	-11.1371
▁있겠다	-11.1372
▁찌질한	-11.1375
▁없었고	-11.1378
▁벗어	-11.1379
▁앉아	-11.1383
겼다	-11.1384
으리	-11.1384
▁웃어	-11.1388
스레	-11.1389
▁신선하다	-11.1389
▁괜찮을	-11.1391
꺼다	-11.1394
테니	-11.1395
카드	-11.1396
▁아닌지	-11.1398
▁24	-11.1399
▁장편	-11.14
줍니다	-11.14
됬는데	-11.14
▁쓰레기들	-11.1401
폴	-11.1406
▁당한	-11.1407
13	-11.1409
▁붙여	-11.141
▁끝났다	-11.1411
▁찾아볼수	-11.1413
▁중후반	-11.1413
대작	-11.1413
▁생각했다	-11.1416
▁구성은	-11.1416
낳	-11.1418
특집	-11.1418
▁아닌거	-11.1419
인상	-11.1419
특별	-11.142
매니아	-11.142
▁몸에	-11.142
훨씬	-11.1421
불륜	-11.1421
흐름	-11.1422
씨와	-11.1424
▁갱	-11.1425
부분에서	-11.1426
당시에는	-11.1426
덧	-11.1427
점드립니다	-11.1429
계를	-11.143
질때	-11.1433
▁악평	-11.1435
아마	-11.1435
차별	-11.1436
되었던	-11.1437
관련	-11.144
▁노는	-11.1441
▁장르는	-11.1443
▁움직이는	-11.1444
좋았음	-11.1445
으세요	-11.1445
▁잘하네	-11.1447
▁몇개	-11.1451
앵	-11.1452
뭇	-11.1454
▁내러티브	-11.1454
▁역사왜곡	-11.1454
▁채플린	-11.1454
쌀	-11.1454
▁박신양	-11.1454
▁뭔내용인지	-11.1454
▁홍진호	-11.1454
▁섭외	-11.1454
▁콤비	-11.1454
▁수정	-11.1454
▁고질라	-11.1454
▁새롭게	-11.1454
▁전문성우	-11.1454
▁리즈시절	-11.1455
▁흥미롭고	-11.1455
▁이범수	-11.1455
안남기는데	-11.1455
▁경쾌	-11.1456
▁재밌게봤다	-11.1456
▁촌스러운	-11.1456
▁악몽	-11.1456
▁때우기	-11.1457
▁비롯	-11.1457
▁넋	-11.1458
▁닮아	-11.1458
▁자세히	-11.1459
▁먼지	-11.146
▁타락	-11.1461
▁못생긴	-11.1461
▁주려	-11.1462
▁지루했어요	-11.1462
▁집어넣	-11.1463
▁먹먹하다	-11.1464
XX	-11.1465
티비로	-11.1467
▁잘생기고	-11.1469
▁속아서	-11.147
▁파악	-11.147
장님	-11.1471
▁이해하고	-11.1471
▁지금껏	-11.1473
아이돌	-11.1473
▁나누	-11.1475
▁멋있어요	-11.1476
ᄉᄉ	-11.1479
라구	-11.1479
▁만화는	-11.148
▁전작에	-11.148
▁신나는	-11.1481
▁재미없습니다	-11.1482
▁98	-11.1483
▁서스펜스	-11.1484
▁중요하다	-11.1484
▁인물의	-11.1485
별로다	-11.1488
▁헛웃음만	-11.1491
▁앞서	-11.1492
획을	-11.1492
▁콜	-11.1493
▁파라노말	-11.1497
▁심사위원	-11.1497
▁만드네요	-11.1498
▁소유	-11.1498
▁동호	-11.1499
▁환자	-11.1505
▁위기	-11.1507
▁향	-11.1508
▁칭	-11.151
빼놓	-11.1511
▁웃겨요	-11.1512
▁배우로	-11.1513
▁있으니	-11.1514
▁아련하	-11.1515
▁먹먹한	-11.1518
▁요구	-11.1518
▁많네요	-11.152
▁나왔을	-11.1523
만들지	-11.1523
좋앗	-11.1524
릴때	-11.1527
▁진주	-11.1529
▁말해서	-11.1533
▁아쉽네	-11.1533
위에서	-11.1536
▁아름답	-11.1536
랫	-11.1537
▁됐는데	-11.1538
▁다가오는	-11.1542
▁안되네요	-11.1542
되길	-11.1542
게요	-11.1546
▁못보고	-11.1549
역에	-11.155
▁뽀	-11.155
▁보여주지	-11.1551
바탕	-11.1551
▁감정이입이	-11.1557
~!!!!	-11.1558
▁홀	-11.1559
▁혜	-11.1559
▁거다	-11.156
인간의	-11.1561
▁훈훈	-11.1563
▁첫장면	-11.1566
하라고	-11.1571
▁보고있어요	-11.1572
▁예술적	-11.1573
▁요소를	-11.1576
▁산만한	-11.1577
영환	-11.1579
▁누구도	-11.158
▁노력이	-11.1581
운동	-11.1582
▁맺	-11.1583
되면서	-11.1583
스크	-11.1593
발이	-11.1595
▁전쟁을	-11.1595
께서	-11.1596
▁않았고	-11.1601
▁이걸보고	-11.1601
당하고	-11.1602
▁제작사	-11.161
▁제목부터	-11.1613
방울	-11.1616
세포	-11.1618
▁리뷰를	-11.1619
▁배우만	-11.1619
엇어요	-11.1619
▁영상으로	-11.162
▁상황에서	-11.1622
들어서	-11.1622
▁머지	-11.1623
보는중	-11.1627
모습을	-11.1628
▁읽은	-11.1631
▁낚이지	-11.1631
꺼면	-11.1631
나봐요	-11.1632
졌습니다	-11.1635
▁블루	-11.1638
▁보실	-11.1639
▁시작은	-11.164
않는다	-11.1642
▁시절의	-11.1642
▁잃었	-11.1644
▁설정에	-11.1647
모양	-11.1648
ly	-11.1648
허허	-11.1649
▁분이	-11.1651
▁같았	-11.1654
▁남긴다	-11.1655
▁만드는지	-11.1657
▁잃지	-11.1658
▁둘의	-11.166
뭉	-11.1661
감사합니다	-11.1666
왜이리	-11.1668
▁기분만	-11.1669
뿐만	-11.167
무협	-11.167
▁놈이	-11.1671
실패	-11.1671
~~~~~~~	-11.1671
▁이런영화에	-11.1672
빼면	-11.1675
색이	-11.1679
▁시간때우기	-11.1679
▁현실이다	-11.1683
▁처음임	-11.1684
춰	-11.1685
▁다문화	-11.1688
뜯	-11.1689
▁좋구	-11.1689
댓	-11.169
▁버릴	-11.1691
쉴	-11.1692
썰	-11.1692
뒀	-11.1692
뎁	-11.1692
q	-11.1692
▁소름끼친다	-11.1692
▁에이리언	-11.1692
▁오리지널	-11.1692
▁크리스토퍼	-11.1692
▁혹성탈출	-11.1692
▁후덜덜	-11.1692
댐	-11.1692
듀	-11.1692
▁컨저링	-11.1692
▁불필요한	-11.1692
▁치밀한	-11.1692
▁무슨내용인지	-11.1692
▁박해일	-11.1692
▁유오성	-11.1692
씁니다	-11.1693
▁암걸리	-11.1693
▁과도한	-11.1693
▁안타까워	-11.1693
▁만들어졌다	-11.1694
▁일깨워주는	-11.1694
▁느껴짐	-11.1695
▁적절히	-11.1695
배속으로	-11.1695
▁웬만한	-11.1695
▁친절	-11.1696
▁빡치	-11.1696
▁담아	-11.1697
헌터	-11.1697
▁멈추	-11.1699
▁따뜻하게	-11.1699
▁좋았어	-11.17
돼서	-11.1702
▁금방	-11.1703
▁냉정	-11.1703
▁의미는	-11.1704
이쁘다	-11.1704
▁장나라	-11.1704
▁웃겼음	-11.1705
▁뻔히	-11.1705
점줄	-11.1705
마니	-11.1709
▁팬이라면	-11.171
▁익	-11.171
▁유아인	-11.171
숨	-11.1711
▁좋아한다면	-11.1712
▁하냐	-11.1712
▁졸면서	-11.1713
▁무슨말이	-11.1714
▁실망스러운	-11.1715
▁영화라면	-11.1716
▁일베	-11.1716
▁훌륭하	-11.1716
▁불편하다	-11.1718
▁슬퍼요	-11.1718
받아서	-11.1719
▁별다른	-11.1719
▁느꼈던	-11.1719
▁결말에	-11.1721
▁몸이	-11.1723
▁사나이	-11.1724
▁난무	-11.1724
▁지루하지만	-11.1726
▁우디	-11.173
▁허술하고	-11.1732
▁가슴아프	-11.1733
▁마을	-11.1733
▁놀이	-11.1735
▁달고	-11.1736
▁어색하다	-11.1736
▁넣은	-11.1737
▁실화라니	-11.1737
▁연장	-11.1737
▁잘봤다	-11.1738
보라고	-11.174
▁안든다	-11.1743
마라	-11.1743
▁어떻게든	-11.1744
▁추천해	-11.1745
▁씁쓸한	-11.1745
▁편집이	-11.1746
러브	-11.1748
▁외에는	-11.175
▁각본이	-11.175
▁No	-11.1752
▁빈약하	-11.1755
▁달콤한	-11.1755
▁비난	-11.1757
▁개봉하는	-11.1758
▁이념	-11.1759
▁뒤집어	-11.1759
분명	-11.1764
ter	-11.1764
망작	-11.1764
▁한건지	-11.1766
▁영화관에	-11.1767
as	-11.177
▁뻔해	-11.1771
국가	-11.1771
▁죄송	-11.1772
해준다	-11.1773
!!!!!!!!!!!	-11.1774
▁촌스럽지	-11.1776
▁출연하는	-11.1783
▁낯	-11.1786
▁하던	-11.1786
▁마르	-11.1791
▁체험	-11.1791
남아	-11.1794
▁여정	-11.1796
▁검사	-11.1798
구조	-11.1801
▁괴물이	-11.1801
▁옛다	-11.1803
력을	-11.181
▁식으로	-11.1811
▁말하면	-11.1811
▁만든것	-11.1815
▁화가나	-11.1815
한건가	-11.1815
▁새로	-11.182
아아아	-11.1822
▁수백	-11.1825
▁볼까	-11.1827
부부	-11.183
이었다면	-11.1833
▁도움	-11.1834
그렇지	-11.1835
보나	-11.184
▁김재	-11.184
재미있는	-11.1841
▁마크	-11.1842
잇엇	-11.1842
하기까지	-11.1844
성공	-11.1847
하지않은	-11.1847
▁보물	-11.1847
▁모야	-11.1849
▁가졌	-11.1853
몰라	-11.1854
▁존재감	-11.1854
▁서우	-11.1855
▁깔끔	-11.1859
▁약해	-11.1863
▁팔아먹	-11.1865
▁가식	-11.1867
빠짐	-11.1869
▁민망한	-11.187
▁성장영화	-11.1871
고생	-11.1877
▁밀라	-11.1878
지않을	-11.1879
입고	-11.188
▁아프고	-11.188
▁생각에	-11.1884
▁비슷하	-11.1886
▁구려	-11.189
▁예수님	-11.1893
봤다가	-11.1899
풀이	-11.19
▁너무한다	-11.1901
끊	-11.1901
▁서로를	-11.1901
▁스타일의	-11.1904
신기	-11.1905
▁상큼	-11.1909
통쾌	-11.191
무엇	-11.1911
묵	-11.1911
일수도	-11.1912
▁남자들의	-11.1912
브리	-11.1912
카메라	-11.1914
▁수준급	-11.1914
한마디	-11.1915
느와르	-11.1916
슬픈	-11.1916
▁뽕	-11.1919
네용	-11.1919
▁달콤	-11.1919
마음에	-11.1919
터짐	-11.1921
마디	-11.1922
▁이영화에서	-11.1925
예능	-11.1925
▁지식	-11.1929
▁훈훈하	-11.1931
▁줬다	-11.1933
▁성룡영화	-11.1935
팩	-11.1936
쏠	-11.1936
Z	-11.1936
▁ebs	-11.1936
▁kbs	-11.1936
▁두근두근	-11.1936
▁클린트	-11.1936
人	-11.1936
흰	-11.1936
▁불면증	-11.1936
▁정재영	-11.1936
▁사춘기	-11.1936
▁러셀	-11.1936
▁옹박	-11.1936
▁불후의	-11.1936
▁남편이	-11.1936
뿐더러	-11.1937
▁짧게	-11.1937
▁일어난	-11.1937
▁에로틱	-11.1937
어디서	-11.1937
▁프레디	-11.1938
▁꺼버렸다	-11.1938
▁빼앗	-11.1938
▁흥해라	-11.1938
▁가자	-11.1939
▁나간	-11.1939
▁잃고	-11.1939
▁알았더니	-11.1939
▁환불	-11.1939
▁맞춘	-11.194
▁가관이	-11.194
▁케이트	-11.194
▁나중엔	-11.1941
▁현빈	-11.1941
찍은	-11.1941
▁느린	-11.1941
▁즐겁다	-11.1942
▁언제쯤	-11.1942
▁덮	-11.1944
▁창조	-11.1945
▁고백	-11.1945
▁500	-11.1946
▁행동이	-11.1946
낮아서	-11.1946
▁좋아할만한	-11.1947
▁무식	-11.1948
▁스릴있고	-11.1948
▁무얼	-11.1948
▁다를게	-11.1948
▁99	-11.1949
▁만들어주세요	-11.1949
▁차원이	-11.195
▁손색없	-11.195
▁플레이	-11.195
▁느낌이랄까	-11.195
▁예뻐요	-11.195
내기	-11.1952
▁‘	-11.1953
힘든	-11.1954
▁심심해서	-11.1955
▁이번엔	-11.1955
▁연민	-11.1955
이란걸	-11.1956
▁나가는	-11.1957
아아아아	-11.1958
▁볼만했는데	-11.1959
▁했어야	-11.1959
▁병원	-11.1959
▁으아	-11.196
▁울었네요	-11.196
드립니다	-11.1961
붕괴	-11.1962
▁처절한	-11.1963
▁바라보	-11.1964
하나하나	-11.1964
▁코믹한	-11.1964
되는영화	-11.1967
▁보는듯	-11.1967
▁모습도	-11.1967
▁재밌게봤음	-11.197
▁먹었	-11.1973
▁질리	-11.1973
랬는데	-11.1976
▁넘겨	-11.1978
▁이준기	-11.1978
▁사망	-11.1979
▁영감	-11.198
▁출연자	-11.1981
싸우	-11.1982
▁떨어진	-11.1985
▁넘쳐	-11.1988
▁유치하지만	-11.199
▁어수선	-11.1991
▁더빙은	-11.1992
▁좋아합니다	-11.1995
▁음모	-11.1995
▁이름만	-11.1998
▁관점에서	-11.2
▁위에	-11.2001
▁우려	-11.2001
▁최고라는	-11.2002
▁오만	-11.2002
▁진보	-11.2003
▁레드	-11.2004
햇던	-11.2005
▁보다보다	-11.2005
▁원인	-11.2008
▁그땐	-11.2009
▁인한	-11.2009
▁조정	-11.2011
▁좀비물	-11.2014
▁미군	-11.2016
▁기다리고	-11.2016
▁마마	-11.2018
▁라인	-11.2019
▁다른거	-11.2019
▁이때까지	-11.2025
▁다음에	-11.2026
보며	-11.2026
▁실망한	-11.2027
▁실망시키지	-11.2028
▁시청자를	-11.2031
ᅳᅮ	-11.2032
▁외계인이	-11.2036
▁이건좀	-11.2041
아픔을	-11.2043
▁자라	-11.2043
인간들	-11.2044
재밋게	-11.2047
거예요	-11.2047
기대하고	-11.2049
▁호흡	-11.2051
단체	-11.2055
▁뱀	-11.2055
!!!!!!!!!	-11.2055
▁지내	-11.2056
▁봤어	-11.2058
▁하드	-11.2062
▁해피엔딩이	-11.2063
▁조용	-11.2063
예상	-11.2065
▁낳은	-11.2066
▁필수	-11.2066
ᄍᄍᄍ	-11.2069
▁주체	-11.207
메시지를	-11.2072
보는거	-11.2073
▁우리나라는	-11.2075
▁끝날때까지	-11.2075
▁왕자	-11.2076
번쯤	-11.2087
웃기고	-11.2088
▁기대는	-11.2093
▁조명	-11.2094
▁마음의	-11.2094
탄이	-11.2095
▁드라마네요	-11.2096
▁쯧쯧	-11.2096
떨어지	-11.2097
▁모냐	-11.2099
▁꼭봐야	-11.2101
같지만	-11.2101
▁진짜진짜	-11.2106
시티	-11.2107
▁뜬	-11.2107
▁부각	-11.2107
아파	-11.2109
▁수애	-11.2109
▁전국	-11.211
사상	-11.211
▁망치는	-11.2113
유키	-11.2114
거리고	-11.2114
훌륭	-11.2116
이여서	-11.2116
▁찍으	-11.2116
▁뭔데	-11.2117
점정도가	-11.2117
▁나에게는	-11.2119
▁죽기	-11.2119
황당	-11.2125
▁다른사람	-11.2129
▁케이	-11.2143
▁그랬다	-11.2144
▁미국에서	-11.2146
겟네	-11.2147
▁밑에분	-11.2148
▁즐기는	-11.2149
▁시나리오에	-11.215
▁어정쩡	-11.215
▁월드	-11.2154
무서워	-11.2154
▁실망했다	-11.2155
▁리즈	-11.2156
▁여주의	-11.2157
쩔어	-11.2159
▁님들	-11.2159
▁있었나	-11.2164
▁있다는게	-11.2165
쌍	-11.2165
하라는	-11.2165
삐	-11.2168
곰	-11.2169
▁델	-11.217
더럽게	-11.217
▁티나	-11.2172
▁오래전	-11.2174
섹스	-11.2175
▁떠오르	-11.2176
****	-11.2181
▁연출에	-11.2181
퀴	-11.2182
갠	-11.2184
▁나온다는	-11.2184
로봇	-11.2185
낄	-11.2186
쌈	-11.2186
ᅦ	-11.2186
▁로보캅	-11.2186
▁인상깊은	-11.2186
▁인터스텔라	-11.2186
▁가볍고	-11.2186
▁매트릭스	-11.2186
▁뭡니까	-11.2186
▁황비홍	-11.2186
꽂	-11.2186
뉘	-11.2186
댈	-11.2186
▁충무로	-11.2186
▁나발이고	-11.2186
배우들도	-11.2186
▁못미치는	-11.2187
▁귀찮	-11.2187
▁서부극	-11.2187
쁘	-11.2187
▁레이싱	-11.2187
▁닮은	-11.2187
▁0.5	-11.2188
▁습작	-11.2188
▁결합	-11.2188
▁2008	-11.2188
▁갖추	-11.2188
▁호텔	-11.2189
▁과잉	-11.2189
묵직한	-11.2191
▁철저	-11.2191
▁작품인데	-11.2191
▁담담하게	-11.2191
더스	-11.2192
▁악플	-11.2192
▁괴작	-11.2192
▁나았을	-11.2192
죽고	-11.2193
▁추잡	-11.2193
뭐가	-11.2194
▁미칠	-11.2199
낸다	-11.22
?""	-11.2201
▁별점을	-11.2201
기다리	-11.2202
기분이	-11.2202
▁비중이	-11.2203
▁사랑스런	-11.2206
▁시켜	-11.2206
심리를	-11.2207
이것도	-11.2208
수준의	-11.2208
상상	-11.221
▁나라를	-11.2211
녀석	-11.2213
일줄	-11.2213
피디	-11.2216
▁작정	-11.2216
▁따뜻	-11.2217
▁역할이	-11.2217
▁계시	-11.2222
▁내스타일	-11.2223
▁소문	-11.2223
▁예상치	-11.2223
훌륭한	-11.2224
하겠지	-11.2228
▁보는듯한	-11.2229
▁볼만했	-11.223
▁잡은	-11.223
동아리	-11.223
재밌는데	-11.2231
데다가	-11.2232
im	-11.2233
▁알게해준	-11.2233
▁우리네	-11.2235
시킨다	-11.2235
▁무료로	-11.2236
▁단편영화	-11.2236
하구나	-11.2237
▁졸음	-11.2238
▁캐릭터에	-11.2238
▁장인	-11.2239
▁슬픔이	-11.2241
▁키워	-11.2245
▁생각하며	-11.2245
▁웃어야	-11.2246
▁http	-11.2246
▁개인적으론	-11.2247
▁덕에	-11.2248
▁않았으면	-11.2251
▁좋아지는	-11.2251
▁전기	-11.2252
▁성의	-11.2255
▁너무좋아	-11.2255
들었다	-11.2256
▁현실의	-11.2257
▁대단함	-11.2257
이영화를	-11.2258
▁말이다	-11.226
▁코스프레	-11.226
▁만나서	-11.2261
▁목숨을	-11.2262
▁낸	-11.2263
아니야	-11.2263
▁사랑이란	-11.2265
▁졸았다	-11.2265
▁있었다니	-11.2266
▁아니죠	-11.2268
멋대로	-11.2269
▁사랑스럽	-11.227
베리	-11.2271
▁장미	-11.2271
▁so	-11.2272
▁소녀의	-11.2275
▁몫	-11.2275
▁둘째	-11.2276
▁만들었어	-11.228
▁흑흑	-11.2281
▁영구	-11.2281
▁뼈	-11.2282
▁아시아	-11.2283
년후	-11.2286
▁냄새가	-11.2288
ho	-11.2288
아깝네	-11.2289
▁부여	-11.229
▁스텝업	-11.229
▁억지스럽다	-11.2291
적임	-11.2291
모르는	-11.2293
▁모아	-11.2295
▁욕구	-11.2298
▁전개되는	-11.23
▁멋있어	-11.2301
곳에서	-11.2301
하더군요	-11.2305
▁기회가	-11.2305
▁영화다운	-11.2305
--;	-11.2308
범인	-11.2311
아냐	-11.2312
져야	-11.2312
▁잊을수가	-11.2313
li	-11.2313
께요	-11.2313
좋게	-11.2315
▁당하고	-11.2315
▁보여줬다	-11.2316
▁현장	-11.2316
▁과거의	-11.2317
좋겟다	-11.2317
▁두배우	-11.2321
▁짜증나네	-11.2322
▁몰입을	-11.2325
▁공감을	-11.2327
만드네	-11.2331
러운	-11.2332
액션이	-11.2333
러스	-11.2339
생각해	-11.2339
마치	-11.2345
됐지만	-11.235
▁애인	-11.2353
버렸음	-11.2353
▁대사들이	-11.2354
!!!!!!!!!!!!!!	-11.2355
▁집안	-11.2356
재미있고	-11.2358
▁장치	-11.2362
▁남주가	-11.2362
대결	-11.2364
▁인간들은	-11.2365
▁어처구니가	-11.2368
▁이작품	-11.2368
▁이건진짜	-11.2372
사장	-11.2373
점드림	-11.2375
ᅲᅲᅲᅲᅲ	-11.2375
▁같기도	-11.2376
끼들	-11.2379
기보단	-11.2381
▁먹칠	-11.2385
▁생각해도	-11.2385
▁연기파	-11.2385
▁진행이	-11.2386
을위해	-11.2391
됐음	-11.2392
▁화끈	-11.2393
▁영활	-11.2393
아역	-11.2394
무섭다	-11.24
겟지	-11.2403
▁마사	-11.2403
행동	-11.2406
을까요	-11.2408
▁안봤다	-11.2409
갖고	-11.241
킴	-11.2412
앜	-11.2412
▁처절	-11.2413
▁묘	-11.2414
해가는	-11.2415
둘이	-11.2415
▁일드	-11.2416
두번	-11.2416
▁코미디로	-11.2419
▁아쉬울	-11.2419
▁허술	-11.2423
ent	-11.2424
▁못된다	-11.2425
▁그것은	-11.2426
배우님	-11.2428
켄	-11.2429
▁작품성은	-11.243
▁아들과	-11.243
▁비추천	-11.243
깍	-11.2431
썩	-11.2431
안타깝	-11.2431
싶고	-11.2433
▁일상을	-11.2433
한것도	-11.2434
▁고로	-11.2434
흥행	-11.2435
걸까요	-11.2436
독립영화	-11.2436
잣	-11.2436
자마자	-11.2437
철학	-11.2439
음악이	-11.244
▁바랬	-11.2441
펴	-11.2442
훗	-11.2442
▁이스트우드	-11.2442
벙	-11.2442
▁리암니슨	-11.2442
▁어설픔	-11.2442
▁유치뽕짝	-11.2442
▁찝찝함	-11.2442
웰	-11.2442
▁무책임	-11.2442
▁서프라이즈	-11.2442
▁왠만해선	-11.2442
▁지하철	-11.2442
▁추악한	-11.2442
▁알맹이	-11.2442
없지만	-11.2443
▁옹호	-11.2443
▁한지민	-11.2443
▁조인성	-11.2444
▁my	-11.2444
▁루즈하	-11.2445
▁실컷	-11.2445
▁얼른	-11.2445
▁외로운	-11.2445
▁묻어나는	-11.2445
▁가득찬	-11.2445
▁활약	-11.2446
▁수준은	-11.2446
▁콜린	-11.2446
▁한예슬	-11.2447
▁지루하지않고	-11.2447
▁에릭	-11.2447
▁잘만들어진	-11.2448
항상	-11.2448
▁do	-11.2448
▁공존	-11.2449
삭제	-11.2449
▁감동적이었습니다	-11.245
▁묘하게	-11.245
무엇보다	-11.2451
▁2001	-11.2451
▁호평	-11.2451
▁고향	-11.2451
▁관객수	-11.2452
▁우익	-11.2452
▁도덕	-11.2453
▁궁금한	-11.2453
방법	-11.2454
▁솔직하게	-11.2454
▁처참	-11.2454
▁승화	-11.2455
▁원빈	-11.2456
▁쯤	-11.2456
▁하셨	-11.2458
다행	-11.246
▁많았던	-11.2461
▁전세계	-11.2461
▁이게뭐야	-11.2462
▁그녀가	-11.2463
쓰면	-11.2463
크로	-11.2464
▁아무래	-11.2465
흐흐	-11.2465
▁내보내	-11.2466
▁신기하다	-11.2466
▁제법	-11.2468
▁않는데	-11.247
▁헐크	-11.2471
▁신선했다	-11.2473
▁고려	-11.2473
▁구매	-11.2473
▁호소	-11.2475
▁말아라	-11.2479
▁미쳤다	-11.2479
▁아아	-11.248
잼잇	-11.248
▁안가고	-11.2481
▁그만좀	-11.2483
다고생각	-11.2483
▁공감되는	-11.2484
▁낮음	-11.2484
햇음	-11.2485
▁재밌게봤	-11.2486
▁뻔해서	-11.249
▁농구	-11.249
▁잡았	-11.2491
▁볼꺼	-11.2492
▁볼거리도	-11.2493
▁가슴으로	-11.2494
cgv	-11.2495
▁아까웠	-11.2496
▁이런것	-11.2497
▁몇명	-11.2497
▁무식한	-11.2499
▁기차	-11.25
놓는	-11.2501
▁작위적인	-11.2502
살에	-11.2502
▁망상	-11.2502
▁지대로	-11.2503
▁옆	-11.2503
소리가	-11.2504
같았는데	-11.2505
▁멋있었다	-11.2505
▁음악영화	-11.2505
▁잔인하	-11.2511
▁빅뱅	-11.2512
▁있었을까	-11.2512
▁탁	-11.2514
▁호러물	-11.2514
▁어이없네	-11.2515
망신	-11.2515
보았	-11.2515
▁잠든	-11.2516
▁곳에서	-11.2518
▁숀	-11.2519
oo	-11.252
▁감당	-11.2521
▁1000	-11.2522
▁암이	-11.2524
▁안되요	-11.2524
▁하나만	-11.2527
달아	-11.2528
▁울음	-11.2529
▁하는건지	-11.2529
▁알아서	-11.2529
▁보시는	-11.2531
라이트	-11.2532
나와요	-11.2532
앞으로도	-11.2534
들에겐	-11.2534
보이고	-11.2534
▁먹먹함	-11.2536
미스	-11.2538
▁인간을	-11.2543
있어야	-11.2543
광수	-11.2547
▁이연걸의	-11.2548
▁디자인	-11.2548
났어요	-11.2549
▁영상물	-11.255
해줬으면	-11.2553
▁시간대	-11.2554
약한	-11.2557
▁본인이	-11.2557
▁보는줄	-11.2559
보여준	-11.2559
개월	-11.2559
▁마인드	-11.2563
말던가	-11.2566
회장	-11.2566
▁음악에	-11.2566
▁거부감	-11.2566
본적	-11.2568
▁들리	-11.257
재미가	-11.2576
▁평점좀	-11.2578
죽이는	-11.2579
▁이게왜	-11.258
같았다	-11.258
▁주제로	-11.2581
▁여자들의	-11.2582
▁없었다면	-11.2583
▁보자고	-11.2585
되기	-11.2586
▁마구	-11.2587
▁해적	-11.2589
높다	-11.2589
▁썩은	-11.2592
▁볼줄	-11.2592
▁전작들	-11.2597
투자	-11.2598
났던	-11.2604
작가가	-11.2612
▁겁니다	-11.2612
▁ᄏᄏᄏᄏᄏᄏᄏᄏᄏᄏᄏᄏ	-11.2614
▁기억하는	-11.2624
참고	-11.2626
▁어른들이	-11.2627
▁난감	-11.2628
▁예의	-11.263
▁결론이	-11.263
래야	-11.2633
▁끝나지	-11.2634
액션은	-11.2636
▁닭	-11.2637
▁기계	-11.2638
▁또보고	-11.2639
뭔지	-11.2641
최악의영화	-11.2642
▁희망이	-11.2644
▁후회하지	-11.2647
▁높은거	-11.2647
▁아이의	-11.2649
보고싶어요	-11.2649
▁기억도	-11.2651
▁죽이네	-11.2655
램	-11.2656
예쁘	-11.266
자들은	-11.2666
결제	-11.2666
▁싶게	-11.2667
영화에요	-11.2667
▁그때의	-11.2669
▁정도다	-11.2671
▁몇년이	-11.2674
거같은	-11.2674
▁격투	-11.2675
보다보면	-11.2679
▁행위	-11.2681
▁에스	-11.2682
▁비교가	-11.2683
죽겠다	-11.2683
▁여자들은	-11.2685
▁과한	-11.2685
▁ᄏᄏᄏᄏᄏᄏᄏᄏᄏᄏᄏᄏᄏ	-11.2686
▁만드나	-11.2687
대충	-11.2688
123	-11.269
쇄	-11.269
▁온다	-11.269
폼	-11.2698
노동자	-11.27
▁살아있다	-11.27
▁예매	-11.2701
▁드러	-11.2701
▁기발	-11.2701
윌	-11.2701
▁돌아간	-11.2702
J	-11.2702
쭉	-11.2702
괴물	-11.2702
잭	-11.2703
OST	-11.2703
펑	-11.2705
긍	-11.2705
헝	-11.2705
똘	-11.2705
렐	-11.2706
▁어벤져스	-11.2706
▁옴니버스	-11.2706
▁휴머니즘	-11.2706
뇨	-11.2706
뺀	-11.2706
짖	-11.2706
펄	-11.2706
▁몸부림	-11.2706
▁썰렁	-11.2706
▁어떨까	-11.2706
쫙	-11.2706
▁뒷통수	-11.2706
▁뚜렷	-11.2706
▁탕웨이	-11.2706
쌤	-11.2706
▁훈련	-11.2706
▁가만히	-11.2706
▁사다코	-11.2706
▁흡사	-11.2706
▁and	-11.2706
▁와이프	-11.2706
▁관람불가	-11.2706
▁흥미롭다	-11.2707
▁깨달았다	-11.2707
뮤직	-11.2707
▁어둠	-11.2707
▁저녁	-11.2708
예고편	-11.2708
▁실종	-11.271
ill	-11.2711
▁선율	-11.2711
▁오오	-11.2711
▁독백	-11.2711
▁적응	-11.2712
▁반지의	-11.2713
▁육체	-11.2714
▁정도껏	-11.2714
▁않았습니다	-11.2715
아놔	-11.2716
▁상업	-11.2719
nd	-11.2719
▁중간중간에	-11.272
▁봤었던	-11.272
▁한수	-11.2721
▁말하지	-11.2722
▁슴가	-11.2722
▁떠올리게	-11.2724
▁대책	-11.2724
▁생각나네	-11.2725
지워	-11.2725
▁알수없는	-11.2726
▁히트	-11.2726
▁볼거리가	-11.2727
▁시원하게	-11.2727
재밌었다	-11.2727
써서	-11.2732
단순	-11.2733
▁조잡하고	-11.2734
▁ᅵ	-11.2735
▁때리	-11.2735
▁것처럼	-11.2736
▁허준	-11.2736
▁가는줄	-11.2737
세여	-11.2737
▁보았지만	-11.2739
설마	-11.2739
아닌듯	-11.2739
▁진작	-11.2742
▁자신들	-11.2743
토리	-11.2745
▁된다고	-11.2747
나간	-11.2748
▁미치겠다	-11.2749
하게되는	-11.275
▁연출한	-11.2753
▁무게감	-11.2754
▁따른	-11.2758
했으니	-11.276
▁장군	-11.276
▁피디	-11.2761
▁콘서트	-11.2762
▁영화인거	-11.2762
▁세계를	-11.2762
▁힘든데	-11.2765
▁안본사람	-11.2767
해버린	-11.2767
▁선전	-11.2768
▁한때	-11.2771
▁잊어	-11.2774
신듯	-11.2775
급으로	-11.2776
▁강호동	-11.2777
▁감상하	-11.2781
▁거울	-11.2781
▁재치있	-11.2784
▁이순신	-11.2784
▁각인	-11.2785
▁엉망이고	-11.2786
공간	-11.2789
▁지금까지도	-11.2791
을수도	-11.2791
역으로	-11.2792
▁아니겠지	-11.2794
▁후회할	-11.2794
▁ᄏᄏᄏᄏᄏᄏᄏᄏᄏᄏᄏᄏᄏᄏ	-11.2796
▁무언가를	-11.2796
▁유머와	-11.2799
조선	-11.2799
▁욕나오는	-11.2802
▁윤아	-11.2804
▁서부영화	-11.2805
▁읽어보	-11.2806
▁끓	-11.2807
끌고	-11.2809
때문인지	-11.2812
▁대작이다	-11.2812
▁노예	-11.2813
▁모른	-11.2813
▁시간아까움	-11.2815
▁평소에	-11.2819
▁배경은	-11.2819
~10	-11.2828
▁남음	-11.2831
감동적	-11.2833
어버린	-11.2833
▁나오나	-11.2834
60	-11.2834
▁지루해요	-11.2834
할때마다	-11.2838
▁쳐도	-11.2838
▁딱딱	-11.2838
▁성공한	-11.2841
▁198	-11.2842
▁한계가	-11.2845
▁사형	-11.2845
한텐	-11.2848
▁소리지르	-11.2851
▁귀가	-11.2852
▁데이	-11.2853
▁쓴다	-11.2853
▁감동적이었	-11.2853
▁N	-11.2856
▁넘치고	-11.2856
▁난해하다	-11.2857
▁제작진들	-11.2858
▁그외	-11.2859
▁타이	-11.2861
▁너네	-11.2861
▁대한민국의	-11.2861
▁구라	-11.2862
생긴	-11.2864
▁구리	-11.2866
▁알바생	-11.2868
▁장난치	-11.287
영환지	-11.287
▁대단해	-11.2872
봤자	-11.2877
▁사람으로	-11.2878
▁제작한	-11.2879
▁당신을	-11.2881
▁믿을수	-11.2883
▁볼땐	-11.2886
▁지인	-11.2887
ᄋᄋᄋ	-11.289
▁바가	-11.289
글고	-11.2892
▁찡한	-11.2894
▁헬기	-11.2894
오오	-11.2895
▁노력한	-11.2899
왕국	-11.29
▁심리묘사	-11.2901
▁드라마였다	-11.2902
▁바뀌는	-11.2902
▁재미없었	-11.2905
잘하고	-11.2907
▁지원	-11.2909
▁있는것	-11.291
분보고	-11.291
획	-11.2911
▁삼가	-11.2912
▁몰입감이	-11.2914
▁볼만하고	-11.2917
▁버스	-11.2917
베르	-11.2921
▁얘기가	-11.2922
나왔으면	-11.2922
될까	-11.2923
▁대작이	-11.2923
보기에	-11.2925
▁안보는	-11.2929
▁넣었	-11.2934
▁거대	-11.2935
▁서민	-11.2937
▁적절	-11.2938
▁주연으로	-11.2939
▁안보이	-11.2941
해졌다	-11.2943
▁장르에	-11.2944
▁겉멋	-11.2945
▁치는	-11.2946
▁고르	-11.2947
해짐	-11.2948
▁치고는	-11.2948
빈약	-11.2952
찍고	-11.2952
놈들이	-11.2953
▁두사람	-11.2954
▁작품이라고	-11.2955
▁본성	-11.2955
▁마음은	-11.2955
▁간직	-11.2957
▁연관	-11.2957
▁갈아	-11.2961
굿굿	-11.2964
볍	-11.2966
▁마음속	-11.2969
▁미치는	-11.297
똑똑	-11.2971
▁정성	-11.2972
밋	-11.2972
륜	-11.2972
듦	-11.2972
으면서도	-11.2973
▁능가	-11.2975
늬	-11.2975
겸	-11.2976
▁love	-11.2976
▁어땠을까	-11.2976
▁어울린다	-11.2976
▁원맨쇼	-11.2976
▁최곱니다	-11.2976
횽	-11.2976
▁신현준	-11.2976
됴	-11.2976
퍽	-11.2976
▁덴젤	-11.2976
▁이동욱	-11.2976
-0-	-11.2976
▁왜이러지	-11.2976
▁잠수함	-11.2976
스캔들	-11.2976
▁엑소	-11.2976
떠나	-11.2976
▁괜춘	-11.2977
▁짜여진	-11.2977
시켰다	-11.2977
▁루이스	-11.2977
▁나눠	-11.2977
▁뒤로갈수록	-11.2977
▁잔잔하니	-11.2977
블레이드	-11.2978
▁ᄏᄏᄏᄏᄏᄏᄏᄏᄏᄏᄏᄏᄏᄏᄏ	-11.2978
▁당최	-11.2978
▁김하늘	-11.2979
▁줄리아	-11.2979
▁못잡	-11.2979
▁이름값	-11.2979
▁낯선	-11.298
톰	-11.298
▁이성재	-11.298
▁끝내준다	-11.298
▁반성해라	-11.2981
▁몇안되는	-11.2981
약함	-11.2981
▁와이어	-11.2981
꽤	-11.2981
잔잔한	-11.2981
▁위하여	-11.2982
▁짧아서	-11.2982
gt	-11.2982
열받	-11.2983
▁뛰어나다	-11.2984
▁창작	-11.2984
새기	-11.2985
▁재료	-11.2985
▁어느새	-11.2986
▁개인의	-11.2987
▁바람피	-11.2987
▁잔인하기만	-11.2989
▁버티	-11.2989
▁유아용	-11.299
▁묘미	-11.2991
▁무척이나	-11.2992
▁않았는데	-11.2992
ie	-11.2992
▁개봉했을때	-11.2992
시켜서	-11.2994
외국	-11.2994
▁아니었으면	-11.2995
ery	-11.2995
▁깨알같은	-11.2995
중요한	-11.2996
그룹	-11.2996
개념	-11.2996
?????	-11.2996
▁능가하는	-11.2996
▁읽었	-11.2997
▁분노의	-11.2998
제작진	-11.2999
▁무색	-11.2999
▁오랜만이다	-11.2999
▁어울려	-11.3
였는지	-11.3
▁볼수가	-11.3001
▁아니었음	-11.3001
▁안봤으면	-11.3002
▁틀림없다	-11.3003
▁가치관	-11.3003
▁고맙다	-11.3004
▁허무하다	-11.3004
▁납니다	-11.3005
게아니라	-11.3006
▁유작	-11.3007
▁나았다	-11.301
했더라면	-11.301
▁브래드피트	-11.301
▁엑소시스트	-11.301
▁기준으로	-11.3011
▁선사	-11.3012
▁연관성	-11.3012
▁생각나네요	-11.3013
▁보석	-11.3015
▁김태	-11.3017
▁비극적	-11.3017
▁나가고	-11.3017
▁싶은건지	-11.3017
▁소피	-11.3022
▁잔인하게	-11.3023
객관적으로	-11.3024
▁빛나	-11.3025
▁아이들을	-11.3027
▁재미가없다	-11.3027
▁극적인	-11.3027
▁정신을	-11.3028
▁만들겠다	-11.3029
▁아역배우	-11.3031
▁익숙한	-11.3031
▁정서에	-11.3032
할수있다	-11.3032
햇지만	-11.3032
▁프레데터	-11.3033
▁최고라	-11.3035
▁김구라	-11.3037
▁멋있었	-11.3038
▁안봤지만	-11.3039
▁즐겨보	-11.3041
▁식스센스	-11.3041
예전에	-11.3044
▁저것도	-11.3045
을위한	-11.3046
▁눈빛이	-11.3046
▁확신	-11.3047
▁머릿속에	-11.3048
▁강요	-11.3049
▁김선아	-11.3049
▁땀을	-11.305
▁씨네	-11.305
▁최저	-11.3051
▁주려고	-11.3052
▁내눈	-11.3053
▁시간아깝	-11.3053
▁주인공과	-11.3054
넘들	-11.3055
느껴졌	-11.3058
▁관리	-11.3058
▁허술하다	-11.3059
싶음	-11.306
보낸	-11.306
▁보호	-11.3061
▁일본식	-11.3064
▁드라마에요	-11.3065
만세	-11.307
▁애를	-11.307
스포	-11.3073
음악도	-11.3073
년들	-11.3075
▁설레는	-11.3077
▁눈과	-11.3078
▁꼬맹이	-11.308
▁낼	-11.3084
진실	-11.3086
▁욕하면서	-11.3086
▁싶네	-11.3086
▁지루할수	-11.3086
▁이슈	-11.3091
▁생각하는데	-11.3092
잔아	-11.3092
데이트	-11.3094
▁중독성	-11.3095
파괴	-11.3096
유익	-11.3098
▁집중력	-11.3105
▁액션으로	-11.3106
해줘야	-11.3106
▁보임	-11.3107
▁가르	-11.3108
▁모르겟다	-11.311
▁일본어	-11.311
▁어찌나	-11.311
ut	-11.3111
▁안티	-11.3114
분들께	-11.3114
▁거부감이	-11.3121
▁개발	-11.3121
▁오류	-11.3124
일까요	-11.3129
▁과장되	-11.3132
꿀	-11.3132
▁곳이	-11.3134
▁그나저나	-11.3134
▁없더라	-11.3142
▁슬프게	-11.3142
비슷	-11.3145
!"	-11.3145
▁진지함	-11.3145
▁조용한	-11.3148
▁남자들이	-11.3149
외에는	-11.3149
▁안되는데	-11.3151
야되는데	-11.3151
▁졸았	-11.3156
ig	-11.3156
▁생각해볼	-11.3158
시장	-11.3159
▁뿐만	-11.316
배틀	-11.3165
▁별반개도	-11.3166
▁맞은	-11.3166
▁여주인공은	-11.3167
14	-11.3167
▁일이다	-11.3168
이라지만	-11.3168
25	-11.3168
집에	-11.3172
lt	-11.3172
▁잔잔하면서	-11.3178
▁그러지	-11.3178
▁낚이	-11.3179
싶었다	-11.318
▁표현하는	-11.3183
위를	-11.3185
▁들어가는	-11.3186
45	-11.3187
▁]	-11.3192
▁모아놓	-11.3192
▁평론	-11.3194
▁웅장	-11.3195
점이라니	-11.3197
▁없잖아	-11.3203
릴수	-11.3203
▁미국영화	-11.3204
▁맞고	-11.3204
▁휴가	-11.3205
사랑을	-11.3206
셨어요	-11.3206
▁탁월	-11.3211
준거	-11.3211
▁치밀하	-11.3211
당했다	-11.3211
▁취급	-11.3212
는것은	-11.3212
▁상관없	-11.3213
▁않았을	-11.3215
성인	-11.3217
▁하기에는	-11.3218
틀리	-11.3221
▁빠져들어	-11.3223
주는게	-11.3225
▁감독님이	-11.3228
못한다	-11.3229
▁하려고	-11.3231
점이지	-11.3235
▁알수가	-11.3236
▁공짜	-11.3236
였군	-11.3237
▁살기	-11.3238
묶	-11.3242
▁짙	-11.3249
밌	-11.325
꼈	-11.3251
했구나	-11.3251
뎀	-11.3253
▁페이크	-11.3253
삽	-11.3253
▁로렌스	-11.3254
▁스탤론	-11.3254
▁엑스트라	-11.3254
▁톰행크스	-11.3254
젓	-11.3254
냅	-11.3254
▁재해석	-11.3254
얌	-11.3254
▁보기드문	-11.3254
▁크루즈	-11.3254
▁애절한	-11.3254
▁장쯔이	-11.3254
▁당췌	-11.3254
봅시다	-11.3254
▁하이킥	-11.3254
▁좌파	-11.3254
▁한정된	-11.3254
▁빵터짐	-11.3254
십시오	-11.3254
랍시고	-11.3254
▁매튜	-11.3254
▁푸른	-11.3255
▁어려울	-11.3255
▁패턴	-11.3255
▁우수	-11.3255
▁휴지	-11.3255
▁모르겠으나	-11.3255
단막극	-11.3256
▁짧고	-11.3256
지라도	-11.3256
▁발휘	-11.3257
▁매회	-11.3257
▁일대기	-11.3258
▁빡쳐서	-11.3258
▁껏다	-11.3259
▁태권	-11.3259
▁눈만	-11.3261
▁문학	-11.3261
▁빠순이들	-11.3261
▁기억속에	-11.3262
▁따듯한	-11.3262
▁가리	-11.3262
▁깔끔하게	-11.3262
▁팔아	-11.3263
▁도망가	-11.3263
랩	-11.3263
발차기	-11.3264
▁교차	-11.3264
▁느꼈습니다	-11.3264
녹	-11.3265
빅	-11.3266
[	-11.3266
▁표본	-11.3267
홍콩	-11.3267
슬픔	-11.3267
오히려	-11.3267
▁주옥같은	-11.3268
▁미션	-11.3269
1,2	-11.327
▁무서웠음	-11.327
▁주면	-11.3271
▁질질끄는	-11.3271
▁이건머	-11.3274
등록	-11.3275
▁그리운	-11.3277
중간중간	-11.3278
이라곤	-11.3279
에게서	-11.328
▁원작보다	-11.3281
조절	-11.3282
연습	-11.3282
▁만큼은	-11.3283
되어가는	-11.3284
대단하다	-11.3284
▁안됩니다	-11.3285
▁말할수	-11.3287
▁나왔습니다	-11.3287
▁미화하는	-11.3288
▁무서운거	-11.3288
솜씨	-11.3289
ll	-11.3289
▁한국영화가	-11.329
▁로드	-11.329
▁제작된	-11.3292
▁어려워	-11.3292
▁어정쩡한	-11.3294
▁분명하다	-11.3294
▁그런대로	-11.3295
▁것만으로도	-11.3295
▁얻었	-11.3296
▁슬프지	-11.3296
하늘	-11.3297
▁없었지만	-11.3297
▁꼭봐라	-11.3298
▁이모양	-11.3299
▁저급한	-11.33
정돈	-11.3301
거여	-11.3303
키우	-11.3304
처음부터	-11.3304
싶으면	-11.3305
▁통한	-11.3306
▁사실적인	-11.3308
▁각성	-11.3309
기대안했는데	-11.3309
생각보다	-11.3313
▁선정	-11.3316
ᄃᄃᄃᄃ	-11.3319
▁보여서	-11.3321
▁남지	-11.3322
정부	-11.3323
▁암울한	-11.3324
리얼	-11.3327
나마	-11.3327
주는것도	-11.3327
나봐	-11.3327
눈에	-11.3328
게스트	-11.3328
▁어쩌라는	-11.333
주었다	-11.3331
▁서정	-11.3332
▁앞부분	-11.3336
▁자제	-11.3336
▁나오면서	-11.3338
▁아버지와	-11.3338
▁비유	-11.3339
▁괜찬	-11.3339
▁심심할때	-11.334
▁공개	-11.334
▁후반으로	-11.3341
지금은	-11.3342
dd	-11.3343
소재로	-11.3343
▁기대합니다	-11.3343
할수밖에	-11.3345
▁그림이	-11.3345
▁된장	-11.3345
▁누님	-11.3346
연기자들	-11.3347
▁보나	-11.3348
▁잔혹한	-11.3348
할수록	-11.3349
▁안봤는데	-11.3351
▁평정	-11.3359
▁못했지만	-11.3361
▁포스터는	-11.3362
관에서	-11.3363
한명	-11.3365
위로	-11.3368
따위로	-11.3369
▁신기할	-11.337
▁놈들이	-11.3371
▁웃기긴	-11.3371
풀어	-11.3372
▁잼없어	-11.3377
안되게	-11.3378
▁부족해	-11.3378
보니깐	-11.3379
민호	-11.338
...-_-	-11.3381
▁때리고	-11.3382
부분만	-11.3386
지난	-11.3387
되나요	-11.339
기라도	-11.339
▁유우	-11.3392
넘게	-11.3392
▁~~~~~~~	-11.3394
▁이랬	-11.3395
▁시간아까운	-11.3396
▁엄마와	-11.3398
▁소비	-11.34
▁웃기기	-11.3401
▁최악입니다	-11.3401
말라	-11.3401
▁망가지	-11.3402
쩌네	-11.3403
명이서	-11.3403
ᄏᄏᄏᄏᄏᄏᄏᄏᄏᄏ	-11.3404
센스	-11.3404
버렸어	-11.3406
파티	-11.3407
하는걸	-11.3407
걸린	-11.3409
재미있어	-11.3409
▁살아나	-11.341
▁재미있던데	-11.3411
▁낚였	-11.3415
회사	-11.3415
답지	-11.3416
▁공포영화를	-11.3419
없으면	-11.3419
▁날로	-11.3422
▁밴드	-11.3424
▁안된다는	-11.3427
이라는거	-11.3427
▁거리가	-11.3428
훈이	-11.3429
박자	-11.3433
▁+1	-11.344
모토	-11.3443
갔던	-11.3444
▁있겠	-11.3445
▁납득	-11.3445
▁보여줬	-11.3448
봤을까	-11.3449
▁조직	-11.345
▁청춘의	-11.3451
재미없네	-11.3452
▁흘러도	-11.3453
시청	-11.3455
▁맞을	-11.3456
찍어	-11.3456
▁어지럽	-11.3457
▁이런드라마	-11.3458
▁사랑스러워	-11.3459
거라곤	-11.346
으므로	-11.3466
여름	-11.3468
▁적어	-11.3469
▁섬뜩	-11.3469
▁써라	-11.3471
▁무난한	-11.3479
▁아따	-11.348
것같아서	-11.348
▁못하지만	-11.3485
▁끝나면	-11.3487
사람으로써	-11.3487
ain	-11.3488
그런가	-11.3489
▁무섭다고	-11.349
▁풀었	-11.349
▁하지마	-11.3491
졌어요	-11.3493
▁코믹물	-11.3498
▁말도안되	-11.3499
▁크고	-11.3502
▁교수	-11.3504
▁개성이	-11.3505
▁뻔함	-11.3508
점입니다	-11.3508
▁지저분	-11.3511
▁중에서도	-11.3512
보여서	-11.3515
▁떠난	-11.352
▁명배우들	-11.3525
▁열정이	-11.3528
▁저질영화	-11.3532
▁관람가	-11.3532
▁끝으로	-11.3532
찢	-11.3535
▁알고보니	-11.3536
▁흥행에	-11.3536
▁괴롭	-11.3537
ᆞ	-11.3539
톡	-11.3539
팡	-11.3539
▁까메오	-11.3539
▁쏠쏠	-11.3539
▁정신건강에	-11.3539
▁카타르시스	-11.3539
샹	-11.3539
솟	-11.3539
▁문근영	-11.3539
▁여고괴담	-11.3539
탔	-11.3539
naver	-11.3539
▁뒤통수	-11.3539
▁싱겁	-11.3539
지맙시다	-11.3539
▁즐거워	-11.3539
▁하야오	-11.354
▁페이크다큐	-11.354
▁흔히	-11.354
▁빨리감기	-11.354
▁엠마	-11.354
▁신은경	-11.354
▁도입부	-11.354
▁주제의식	-11.354
▁통틀어	-11.354
▁오그라든다	-11.354
▁가면갈수록	-11.354
이해안감	-11.3541
▁자칫	-11.3541
▁오싹	-11.3542
▁보면볼수록	-11.3543
▁놓친	-11.3543
▁파멸	-11.3543
▁영화관가서	-11.3544
▁환상의	-11.3544
주길	-11.3545
▁첨본다	-11.3545
▁인연	-11.3545
▁억지스러움	-11.3546
▁엔딩곡	-11.3546
▁지겨운	-11.3546
▁시장	-11.3546
▁희극	-11.3546
▁드라마보다	-11.3547
▁2002	-11.3548
▁말할것도	-11.3549
▁급전개	-11.355
▁웃었	-11.355
▁행복해지는	-11.355
▁짜릿	-11.355
것같고	-11.3551
▁최종	-11.3553
델	-11.3553
▁몰입하면서	-11.3553
▁알바들이	-11.3556
▁너는	-11.3556
▁올레티비	-11.3556
▁울나라	-11.3557
▁찍었다	-11.3558
▁아름다웠던	-11.3558
보다니	-11.3558
짠	-11.356
▁극단적인	-11.356
꽝	-11.3561
뮤지컬	-11.3561
▁분석	-11.3561
▁졸려서	-11.3562
▁나오는지	-11.3563
슈퍼	-11.3564
▁사귀	-11.3564
몸매	-11.3565
▁97	-11.3566
▁7~8	-11.3566
어주는	-11.3569
평생	-11.357
발견	-11.357
▁몰라서	-11.3571
뜨거	-11.3571
볼수있는	-11.3571
▁사막	-11.3571
예전	-11.3572
▁이러지	-11.3573
▁be	-11.3573
시킴	-11.3573
▁그리스	-11.3574
종교	-11.3574
▁맞추기	-11.3576
▁시간가는	-11.3577
인줄알았는데	-11.3578
라기엔	-11.358
올때	-11.358
▁감동으로	-11.3581
▁아마도	-11.3581
▁95	-11.3583
인증	-11.3583
▁샤론스톤	-11.3584
▁경쟁	-11.3584
▁찰리	-11.3586
▁산만함	-11.3586
▁소리를	-11.3589
▁부재	-11.3589
el	-11.359
왠지	-11.3593
▁다루는	-11.3593
▁불편하고	-11.3595
▁식상하고	-11.3596
즈음	-11.3597
아픈	-11.3597
▁한순간도	-11.3599
우면	-11.3601
▁잼있었	-11.3601
▁끝장	-11.3601
▁죽어서	-11.3601
▁알면서도	-11.3602
▁한국영화중	-11.3604
▁없을듯	-11.3605
▁파격적	-11.3606
▁지루하네요	-11.361
▁인내	-11.361
▁전통	-11.361
▁연구	-11.3611
▁전편에	-11.3611
▁최고였음	-11.3612
▁생각밖에	-11.3612
▁선생님이	-11.3614
▁금요일	-11.3617
▁재미난	-11.3617
프트	-11.3617
▁극장서	-11.3619
▁철없는	-11.362
▁특별하	-11.362
▁안나와서	-11.3624
셨다	-11.3625
▁통일	-11.3626
▁봐야함	-11.3629
밖	-11.363
▁성격이	-11.363
▁수작입니다	-11.363
이상한	-11.3631
평점에	-11.3632
▁흉	-11.3632
듣는	-11.3633
▁가운데	-11.3633
슬프고	-11.3636
▁욕할	-11.3636
▁잃었다	-11.3636
시키려	-11.3636
집어	-11.3639
▁군대에서	-11.364
▁볼걸	-11.3641
▁꼬라지	-11.3642
▁끔찍한	-11.3644
▁함정	-11.3646
이었어	-11.3646
▁외엔	-11.3647
잇다	-11.3649
▁진하게	-11.3649
▁그사람	-11.3651
▁윈	-11.3652
▁볼만은	-11.3652
▁방식이	-11.3655
하구요	-11.3655
짜증난다	-11.3655
▁배우들연기	-11.3656
▁동기	-11.3659
없엇	-11.3661
되는데	-11.3661
비슷한	-11.3663
▁관대	-11.3664
▁니들은	-11.3664
싶을정도	-11.3665
▁식의	-11.3666
주인공들	-11.3666
몰라도	-11.3667
라는건지	-11.3667
실화	-11.3667
▁한편으로	-11.3667
▁ᅩ	-11.367
▁역사의	-11.3671
▁안녕	-11.3672
▁졸업	-11.3673
▁애매한	-11.3674
▁화해	-11.3675
▁맛에	-11.3678
ᄏᄏᄏᄏᄏᄏᄏᄏᄏᄏᄏ	-11.3678
▁칼로	-11.3679
▁스텝	-11.3683
co	-11.3683
시청자	-11.3683
▁나쁘진	-11.3684
쳤던	-11.3685
▁잔잔하다	-11.3692
우울	-11.3692
▁죽지	-11.3692
▁안난다	-11.3693
▁놀래키	-11.3698
해낸	-11.3699
산업	-11.3699
출신	-11.3705
▁짠한	-11.3705
기위한	-11.3708
▁울림	-11.3708
▁추천함	-11.3709
▁지나가	-11.3712
▁나오게	-11.3712
▁만점을	-11.3714
하시면	-11.3716
▁처음입니다	-11.3716
▁터졌	-11.3716
주고싶다	-11.3717
맞음	-11.3719
그런지	-11.3721
▁스타일리쉬	-11.3722
고마워	-11.3723
▁흔들리	-11.3726
비하	-11.373
▁깍아	-11.373
의미로	-11.373
돌아가	-11.373
▁때문이	-11.3731
▁다같이	-11.3731
▁낮을	-11.3732
▁악의	-11.3732
엇던	-11.3732
▁주말에	-11.3734
했었던	-11.3735
죽이기	-11.3735
년이나	-11.3738
쓴다	-11.3738
▁`	-11.3738
▁무언가가	-11.374
▁난무하는	-11.374
▁대여	-11.3741
▁된게	-11.3742
화부터	-11.3743
▁너희	-11.3745
보았다	-11.3745
▁차지	-11.3745
▁보여주기	-11.375
▁나갈	-11.375
▁합쳐	-11.3753
▁내평점	-11.3753
십니다	-11.3754
▁써도	-11.3757
좋아해서	-11.3758
▁한국말	-11.3761
▁중세	-11.3762
▁슬픔을	-11.3763
▁되냐	-11.3764
▁줄거리에	-11.3764
▁못하게	-11.3764
▁감정들	-11.3766
▁유쾌함	-11.3767
▁받으	-11.377
▁안하는데	-11.3772
▁지루하다고	-11.3775
▁애니로	-11.3775
▁각본과	-11.3777
하는사람	-11.3778
▁관계를	-11.3778
▁객관적	-11.3781
이였는데	-11.3782
▁음악만	-11.3786
으려나	-11.3786
▁노리	-11.379
▁보지않	-11.3791
▁아니란	-11.3792
재미가없	-11.3795
음에도	-11.3795
게끔	-11.3795
▁피어	-11.3795
▁사랑하게	-11.3797
▁아웃	-11.3802
▁그러고	-11.3803
▁이런식	-11.3806
▁분노가	-11.3806
▁무의미	-11.3806
혹시	-11.3809
감동을	-11.381
▁싸우고	-11.3812
젼	-11.3816
부모	-11.3817
했기에	-11.3819
▁예술을	-11.3821
▁랩	-11.3823
▁찌질이	-11.3824
▁광주	-11.3825
▁흠잡을	-11.3826
▁피터	-11.3827
▁잘만든영화	-11.3828
했을텐데	-11.3828
란걸	-11.3828
▁출연했	-11.383
▁귀에	-11.3831
마음을	-11.3832
뜩	-11.3833
▁큐브	-11.3833
죤	-11.3833
▁OCN	-11.3833
▁듣보잡	-11.3833
륵	-11.3833
씌	-11.3833
▁거슬린다	-11.3833
▁뇌리에	-11.3833
▁인상깊다	-11.3833
▁히치콕	-11.3833
쉰	-11.3833
욧	-11.3833
젬	-11.3833
▁스포일러	-11.3833
▁후유증	-11.3833
햐	-11.3833
▁압축	-11.3833
▁고현정	-11.3833
▁서서히	-11.3833
▁눈뜨고	-11.3833
▁균형	-11.3834
▁역겨워	-11.3834
▁부자연스럽	-11.3834
▁압박	-11.3834
▁무슨생각으로	-11.3834
▁차가운	-11.3834
▁이정현	-11.3834
▁하여금	-11.3834
▁테론	-11.3834
▁풋풋	-11.3834
▁새롭고	-11.3835
▁똥폼	-11.3835
▁완결	-11.3835
▁이승기	-11.3836
▁피터팬	-11.3836
▁역부족	-11.3836
▁안달	-11.3837
▁상쾌	-11.3837
하여튼	-11.3839
▁궁금증	-11.3839
▁약간은	-11.3839
▁실존	-11.384
▁성괴	-11.384
▁상상력을	-11.384
바리	-11.384
▁필요할까	-11.384
▁출연료	-11.3841
▁괜찮았어요	-11.3842
▁행운	-11.3842
도그렇고	-11.3842
주려고	-11.3843
▁완소	-11.3843
▁생생하다	-11.3843
▁대가리	-11.3844
▁섬세하고	-11.3844
▁녹화	-11.3844
▁no	-11.3845
▁생생하게	-11.3845
▁지닌	-11.3847
▁대단합니다	-11.3847
▁자연스럽고	-11.385
▁벌어지는	-11.385
▁낚임	-11.385
▁끝나기	-11.3852
웠음	-11.3853
▁한다면	-11.3853
▁보고난	-11.3854
▁대변	-11.3854
인칭	-11.3855
▁완벽히	-11.3855
▁있었어요	-11.3856
별한개	-11.3856
▁다세포	-11.3857
▁더럽게없다	-11.3857
▁눈물난다	-11.3858
▁울었음	-11.3859
▁못봐주겠다	-11.3859
줫	-11.386
▁멋있음	-11.386
여년전	-11.386
▁전형	-11.386
▁무의미한	-11.3862
▁멋지네요	-11.3863
▁들었음	-11.3864
프랑스	-11.3864
▁발생	-11.3866
청춘	-11.3867
▁개념없	-11.3868
▁촌스럽고	-11.3868
▁없기	-11.3868
▁훌륭했다	-11.387
▁재회	-11.387
▁있죠	-11.3871
▁핵심	-11.3873
▁이정도는	-11.3874
저렇게	-11.3874
할머니	-11.3877
▁설레임	-11.3878
▁볼만하던데	-11.3878
▁전환	-11.3879
▁많았다	-11.3879
▁좆	-11.388
▁흔적이	-11.388
▁배우들로	-11.3881
▁동급	-11.3883
▁재밌긴	-11.3885
왜케	-11.3886
그닥	-11.3888
▁생각된다	-11.3889
▁알았지만	-11.3891
▁소름돋는다	-11.3892
▁그러면	-11.3892
레드	-11.3894
▁외화	-11.3894
▁와닿는다	-11.3896
▁좋아했는데	-11.3896
▁되길	-11.3896
▁실망스러웠	-11.3897
▁처음봄	-11.39
썬	-11.3901
▁먹칠을	-11.3904
▁패스	-11.3908
▁매년	-11.3909
▁만들었던	-11.391
▁심했다	-11.391
전설	-11.391
▁각각의	-11.3911
▁만드는게	-11.3913
▁진정으로	-11.3915
해지네요	-11.3917
보게됨	-11.3919
산다	-11.3921
▁밥먹	-11.3921
▁남주인공	-11.3923
할게요	-11.3928
▁귀요미	-11.393
이상은	-11.3931
꼬마	-11.3934
여친	-11.3935
▁가깝다	-11.3937
똑	-11.3943
▁이러니	-11.3946
▁왜이럼	-11.3947
일뿐이다	-11.3948
▁드러난	-11.3951
밤에	-11.3955
많아	-11.3956
매우	-11.3957
▁끝내주는	-11.3957
▁가위	-11.3958
▁잼써	-11.3959
보고난후	-11.396
든데	-11.3962
▁쉣	-11.3964
▁밟	-11.3964
▁수준이다	-11.3964
만으로는	-11.3965
▁영화보는내내	-11.3965
▁질질끌고	-11.3965
▁이쁘네	-11.3966
▁원제	-11.3968
▁모두에게	-11.3973
▁드라마인데	-11.3973
▁먹은	-11.3975
▁말이죠	-11.3976
▁생각해요	-11.3978
▁그시대	-11.398
▁구하기	-11.398
▁고고	-11.3982
▁개연성은	-11.3984
▁찾을수	-11.3984
▁그정도	-11.3984
▁실망감	-11.3987
것이지	-11.3992
▁미워	-11.3993
▁형편없다	-11.3994
▁기대치	-11.3996
▁로그인하게	-11.3997
▁정화	-11.3998
뻐	-11.4003
▁춤추는	-11.4005
▁네가	-11.4005
▁색감이	-11.4008
▁돌아가는	-11.4009
▁이뻐요	-11.4009
▁보느라	-11.4009
▁볼껄	-11.4011
▁저에게	-11.4014
▁알앗	-11.4017
▁있어야지	-11.4018
▁그래픽도	-11.402
▁짜내	-11.4024
티브	-11.4025
▁만들었지	-11.4026
민주	-11.4028
사랑해	-11.4031
쓰레기다	-11.4031
빠다	-11.4033
시원	-11.4033
▁★	-11.4034
▁피로	-11.4035
년생	-11.4037
▁사정	-11.4037
싶습니다	-11.4042
▁티비에	-11.4045
전부	-11.4045
▁파일	-11.4046
▁사람인데	-11.4047
으니깐	-11.4054
머릿속	-11.4056
뭐임	-11.4058
▁제작진이	-11.4058
하다못해	-11.4059
채널	-11.4059
것들은	-11.406
인건지	-11.4061
ss	-11.4062
하군요	-11.4063
선물	-11.4064
▁위대	-11.4068
▁후에도	-11.407
▁킬링타임도	-11.407
▁기대보다	-11.4071
▁흘렀	-11.4073
▁완성도를	-11.4073
▁ᄊ	-11.4074
▁글구	-11.4077
시기를	-11.4078
심하다	-11.4078
▁말리	-11.4078
▁복수가	-11.4079
▁믿기	-11.4085
버려라	-11.4086
▁질주	-11.4086
▁우리집	-11.4086
감사	-11.4088
▁야하다	-11.4088
▁서부	-11.4092
▁의아	-11.4096
내리	-11.4097
▁와진짜	-11.4098
▁안타까웠	-11.4098
보지마삼	-11.41
▁봤어야	-11.4102
▁내취향	-11.4104
▁이야기와	-11.4105
▁투성이	-11.4105
▁말한다	-11.4109
▁심하네	-11.4111
편견을	-11.4112
▁드라마임	-11.4113
▁성우를	-11.4114
▁토끼	-11.4116
;;;;;	-11.412
승리	-11.4121
▁그딴	-11.4126
밴	-11.413
▁사건의	-11.4131
쯧	-11.4132
▁사실에	-11.4133
하시는분들	-11.4134
깁니다	-11.4135
▁분들께	-11.4135
맷	-11.4135
랙	-11.4136
렘	-11.4136
쩡	-11.4136
ᄑ	-11.4136
갸	-11.4136
▁맥어보이	-11.4136
▁멜깁슨	-11.4136
▁버금가는	-11.4136
▁사이코패스	-11.4136
▁스토리텔링	-11.4136
▁쌍팔년도	-11.4136
▁아날로그	-11.4136
▁오토바이	-11.4136
▁중구난방	-11.4136
▁천녀유혼	-11.4136
돕	-11.4136
썅	-11.4136
쑤	-11.4136
씽	-11.4136
쨩	-11.4136
▁강혜정	-11.4136
ight	-11.4136
▁일으키	-11.4136
▁어떨지	-11.4136
▁기괴한	-11.4137
▁서세원	-11.4137
▁조금이나마	-11.4137
▁이종석	-11.4137
▁믿겨지지	-11.4137
▁토마스	-11.4137
▁어디선가	-11.4137
▁아쉬웠다	-11.4137
▁토이스토리	-11.4137
▁김수로	-11.4137
▁어려움	-11.4137
▁인상깊었다	-11.4137
▁낮춰	-11.4137
▁최진실	-11.4138
▁촬영기법	-11.4138
▁새롭다	-11.4138
▁이리저리	-11.4138
▁시청율	-11.4138
ood	-11.4139
▁쌍욕	-11.4139
▁얻을	-11.4139
▁놀라움	-11.414
▁보네	-11.414
▁하얀	-11.414
▁중딩때	-11.414
▁잭슨	-11.414
▁재평가	-11.414
▁그러니	-11.4141
▁좋아했	-11.4141
사랑하는	-11.4141
▁화가난다	-11.4141
테이프	-11.4142
▁고소영	-11.4142
가끔	-11.4142
▁짧지	-11.4143
▁리암	-11.4143
▁짐작	-11.4144
▁어색하지	-11.4145
▁저평가된	-11.4145
▁감동적이었어요	-11.4145
▁따뜻해지	-11.4145
▁몰래	-11.4145
▁동료	-11.4147
▁공격	-11.4148
▁마술	-11.4149
▁천재다	-11.4149
▁몰려	-11.4149
▁나오길래	-11.415
▁장난해	-11.4151
▁여자와	-11.4151
▁작작	-11.4154
▁풋풋하고	-11.4154
▁정상인	-11.4155
▁웃음도	-11.4156
▁나왔는지	-11.4156
▁작살	-11.4156
▁아니에요	-11.4158
▁싫음	-11.4158
▁어려서	-11.4158
▁황제	-11.4159
▁인종	-11.4159
▁넘친다	-11.4159
▁하필	-11.4159
▁없구만	-11.4159
였죠	-11.4159
탄은	-11.416
▁로긴	-11.4161
▁조커	-11.4161
점이라도	-11.4162
▁고래	-11.4162
이라는걸	-11.4164
▁이뤄	-11.4164
▁구석이	-11.4164
봤는지	-11.4165
연결	-11.4166
▁지났는데	-11.4166
▁입고	-11.4167
▁밋밋하고	-11.4167
▁이룬	-11.4168
▁어릴적에	-11.4168
▁미인	-11.4172
▁감독판	-11.4172
▁대단하네요	-11.4172
것인지	-11.4173
▁정글	-11.4173
갱	-11.4174
▁아름다워	-11.4174
▁터짐	-11.4176
짝퉁	-11.4177
vs	-11.4178
▁맞음	-11.4179
번이상	-11.4179
▁전형적	-11.4179
▁도박	-11.4181
▁높냐	-11.4182
밑	-11.4183
으려는	-11.4183
▁폴워커	-11.4184
▁봤다니	-11.4186
평범	-11.4187
▁실체	-11.4187
▁광해	-11.4192
다고해서	-11.4192
리뷰	-11.4192
▁다가온다	-11.4193
▁결과물	-11.4193
▁급하게	-11.4194
▁뭐하냐	-11.4196
단계	-11.4199
걸리	-11.4199
느님	-11.42
▁박신혜	-11.4201
▁프로젝트	-11.4201
▁얼굴을	-11.4202
▁부분에	-11.4202
▁변명	-11.4202
▁절라	-11.4202
▁프레	-11.4203
▁말하기	-11.4203
▁망함	-11.4203
보냐	-11.4204
▁허무하고	-11.4205
▁잡을	-11.4205
▁한국형	-11.4207
▁알수있는	-11.4211
▁밝은	-11.4212
▁생생한	-11.4213
▁140	-11.4213
주변	-11.4214
점이면	-11.4215
사랑해요	-11.4217
▁감동감동	-11.422
▁살인을	-11.4222
투성이	-11.4222
보고있는데	-11.4223
▁만들었다면	-11.4223
▁돌아가고	-11.4223
▁썼다	-11.4224
▁보였다	-11.4225
이야기를	-11.4225
▁속상	-11.4227
▁흥미진진하고	-11.4229
▁지금보니	-11.4232
▁괜찮았고	-11.4232
▁단순하고	-11.4233
▁썩어	-11.4234
어휴	-11.4235
▁개봉하지	-11.4237
▁사장	-11.4237
▁납득이	-11.4238
▁아쉽게	-11.4241
생기고	-11.4242
아까	-11.4242
▁시대상	-11.4243
확실하게	-11.4244
▁진구	-11.4245
준사람들	-11.4245
봤을	-11.4248
▁보고싶지	-11.4249
후반부	-11.4249
^^;;	-11.4253
▁대단했	-11.4253
영화제에서	-11.4256
▁노래만	-11.4258
▁어쩌고	-11.4259
누님	-11.426
▁너희들	-11.4261
래요	-11.4263
▁안나오나	-11.4268
▁본후	-11.4268
▁뭣도	-11.4269
▁데드	-11.4272
소년	-11.4273
▁있기에	-11.4273
추격	-11.4274
▁고마	-11.4274
▁용서가	-11.4278
니당	-11.4278
막장드라마	-11.4279
하네여	-11.4279
싶은데	-11.4279
▁안쓰는데	-11.428
▁CGV	-11.4282
▁왔어요	-11.4284
조금이라도	-11.4284
▁인기가	-11.4286
▁졸린	-11.4293
놈들아	-11.4293
하더만	-11.4294
▁자신감	-11.4294
끝났으면	-11.4296
▁끌지	-11.43
▁몇일	-11.4301
잇어요	-11.4302
▁우리들	-11.4303
싶어요	-11.4308
▁짱입니다	-11.4309
받아야	-11.431
생각해보면	-11.4311
▁수업	-11.4312
▁지구를	-11.4313
▁맞았	-11.4314
▁딴짓	-11.4314
▁역활	-11.4316
me	-11.4317
그랫	-11.4318
울리	-11.4319
▁수작임	-11.4319
▁안보는데	-11.4319
▁별로지만	-11.4319
▁표현력	-11.432
맞추기	-11.4321
all	-11.4321
▁청춘들	-11.4322
▁숨이	-11.4326
▁평가할	-11.4327
▁소중하	-11.4327
!!!!!!!!!!!!	-11.4327
▁남는영화	-11.4331
▁발견한	-11.4331
▁타임용	-11.4332
▁이만큼	-11.4333
▁시시한	-11.4333
▁떨어졌	-11.4334
▁나오니	-11.4336
먹으면서	-11.4336
▁보장	-11.4337
기억에	-11.4337
▁줘서	-11.434
▁모델	-11.4341
▁다가오	-11.4344
▁제한	-11.4347
▁때까지	-11.435
▁터질	-11.4354
▁민망하	-11.4356
낮다	-11.4357
▁고통을	-11.4358
▁퀸	-11.4359
만들기	-11.4359
울때	-11.4366
스턴	-11.4367
▁울뻔	-11.4369
▁재밋네	-11.4371
▁가치는	-11.4372
▁평점높	-11.4372
▁서기	-11.4373
▁보여줘	-11.4376
먹어라	-11.4377
▁동물들	-11.4379
▁아버지를	-11.4379
▁노래와	-11.4381
기회를	-11.4382
▁보겠	-11.4384
회까지	-11.4385
▁시리즈로	-11.4386
되어야	-11.4388
대신	-11.4389
▁끊어	-11.4391
▁예고편에	-11.4393
▁연결이	-11.4396
▁잊혀	-11.4402
♡♡♡	-11.4403
▁본적	-11.4405
▁보네요	-11.4406
▁잼났	-11.4406
29	-11.4406
▁질투	-11.441
▁어느것	-11.441
▁방황	-11.4414
라는건	-11.4418
▁명작인데	-11.4419
▁죽어도	-11.4424
평점이낮	-11.4426
률	-11.4426
즌	-11.4436
여진	-11.4437
▁깨알	-11.4439
함께	-11.444
▁미스터	-11.444
초반에	-11.444
▁끼어	-11.4443
▁비정상	-11.4445
▁망하는	-11.4446
렴	-11.4448
▁징그러	-11.4448
▁웃기기도	-11.4448
캡	-11.4449
그려	-11.4449
끗	-11.4449
궈	-11.4449
멈	-11.4449
훅	-11.4449
샬	-11.4449
윗	-11.4449
ᅭ	-11.4449
▁로버츠	-11.4449
▁웨슬리	-11.4449
▁줄리엣	-11.4449
甲	-11.4449
껍	-11.4449
쪄	-11.4449
▁이선균	-11.4449
윙	-11.4449
▁ᄆᄎ	-11.4449
▁노무현	-11.4449
▁마피아	-11.4449
▁모니터	-11.4449
▁지진희	-11.4449
▁좌절	-11.4449
▁떠오른다	-11.4449
▁배드신	-11.4449
▁깨끗하	-11.4449
클래스	-11.4449
▁며칠	-11.4449
▁으리으리	-11.4449
▁효민	-11.4449
테잎	-11.445
점준거중	-11.445
▁로드무비	-11.445
▁돋보임	-11.445
▁여성의	-11.445
▁국뽕	-11.445
▁조선족	-11.445
▁이민정	-11.445
▁올레	-11.4451
▁스티브	-11.4451
▁발톱	-11.4452
위주로	-11.4452
▁종북	-11.4452
▁무개념	-11.4452
▁의심스럽다	-11.4453
▁철저히	-11.4453
▁아이리스	-11.4453
▁죽음의	-11.4454
▁대략	-11.4454
▁버튼	-11.4455
▁투표	-11.4455
▁무표정	-11.4455
났는데	-11.4455
▁2011	-11.4455
▁감싸	-11.4456
▁보니깐	-11.4456
살짜리	-11.4457
▁모든면에서	-11.4457
▁모르겠어요	-11.4459
▁없으며	-11.4459
▁미치지	-11.446
▁할말이없다	-11.446
▁실화라서	-11.446
▁박힌	-11.446
▁한국인이	-11.446
▁어깨	-11.4461
▁절제	-11.4461
진리	-11.4462
▁신앙	-11.4463
▁화난다	-11.4463
▁초등학생때	-11.4464
▁생겨서	-11.4464
▁의존	-11.4464
▁오유에서	-11.4464
▁켄	-11.4465
▁고대	-11.4465
▁뭐하러	-11.4466
굳굳	-11.4466
▁들었습니다	-11.4467
▁결투	-11.4467
▁바라며	-11.4468
▁친구들이랑	-11.4468
▁멀쩡한	-11.4471
▁아니여	-11.4473
▁일본애니	-11.4473
▁비급	-11.4474
▁없었습니다	-11.4474
▁초등	-11.4476
▁몰랐던	-11.4476
▁빠르고	-11.4478
▁강조	-11.448
▁짱이에요	-11.4481
쉽게	-11.4482
내시간	-11.4482
▁암살	-11.4482
일만에	-11.4483
▁묻혀	-11.4485
▁좋았네요	-11.4488
▁전달하고자	-11.4489
▁책임감	-11.4489
▁돌아보	-11.4491
우월주의	-11.4492
옆	-11.4494
▁걸레	-11.4496
봐야할	-11.4497
▁근거	-11.4497
르르	-11.4498
대단한	-11.4498
▁타잔	-11.4499
▁망한영화	-11.45
대중	-11.45
케이블	-11.45
느낀	-11.45
개뿔	-11.4501
옆에서	-11.4501
하던가	-11.4502
▁되어버린	-11.4502
검색	-11.4502
놨다	-11.4504
▁후회한다	-11.4504
▁한쪽	-11.4505
▁홀로	-11.4507
▁만들었는데	-11.4508
일지도	-11.451
▁재미업	-11.4515
셨으면	-11.4518
나오게	-11.4519
설레	-11.4519
▁대형	-11.4519
*^^*	-11.452
▁높네요	-11.452
출연진	-11.452
▁관객은	-11.452
▁시바	-11.4526
▁ᅢ	-11.4527
풍경	-11.4528
순수	-11.453
본건데	-11.4534
▁욕하고	-11.4534
▁뚝	-11.4535
▁멋있게	-11.4536
본것중	-11.4537
물어	-11.4537
▁엄마는	-11.4539
희망	-11.4539
남녀	-11.454
▁모처럼	-11.4541
▁시간때우기용	-11.4541
받는다	-11.4541
▁무려	-11.4542
▁변호사	-11.4543
ry	-11.4543
▁미래의	-11.4544
▁일일	-11.4547
데리고	-11.4547
▁하차	-11.4549
▁사연	-11.455
새롭	-11.4551
▁갈릴	-11.4556
▁곳곳에	-11.4556
▁과제	-11.4557
▁백미	-11.4558
▁분들에게	-11.4559
▁끝나네	-11.4561
▁재밌게봄	-11.4562
▁억울하	-11.4562
▁꼭보시길	-11.4562
▁한표	-11.4563
놔서	-11.4563
못했다	-11.4565
▁해놓고	-11.4565
▁강렬하	-11.4567
연출력	-11.4567
▁괴수	-11.4568
▁위치	-11.4573
올릴	-11.4575
▁치우	-11.4577
입장	-11.4578
내린	-11.4579
▁그려내	-11.458
▁챙겨보	-11.4584
▁비디오용	-11.4588
▁액션씬이	-11.459
▁중간까지	-11.459
▁강하다	-11.4591
▁높여	-11.4591
▁잼있었다	-11.4592
권력	-11.4594
감동적이고	-11.4595
▁시선이	-11.4596
▁bb	-11.4596
▁오로라	-11.4596
▁굉장	-11.4598
▁안맞고	-11.4598
살려	-11.4599
▁23	-11.4603
▁잼난	-11.4604
▁인상적이다	-11.4604
아래	-11.4609
▁목사님	-11.461
았네	-11.461
▁판타지를	-11.4611
▁다음주	-11.4613
것임	-11.4613
▁재능이	-11.4615
신다면	-11.4619
▁진자	-11.4619
개판	-11.462
주관적	-11.462
▁엉망인	-11.4623
▁이름으로	-11.4624
번씩	-11.4625
더이상	-11.4626
▁머리속	-11.4627
▁못볼	-11.4628
▁중요한건	-11.463
▁리얼한	-11.463
ol	-11.4631
▁바보가	-11.4631
▁쓰레기라고	-11.4632
▁최고작	-11.4635
▁보스	-11.4635
▁너무좋다	-11.4637
▁좋아함	-11.4638
▁출연진들	-11.4638
▁내용전개가	-11.464
▁운명을	-11.4641
▁앵글	-11.4642
▁보게되었	-11.4644
▁무섭기	-11.4652
▁나쁘다	-11.4653
▁당황스럽	-11.4656
마져	-11.4656
▁뭐든	-11.4658
팬이라	-11.4659
될수	-11.4661
드림	-11.4662
▁맛을	-11.4662
▁직원	-11.4663
▁하지말	-11.4664
▁안경	-11.4664
▁중딩	-11.4665
▁이완	-11.4666
▁재밌지만	-11.4666
▁씬이	-11.4667
이럴	-11.4668
질질	-11.4671
▁그녀를	-11.4673
▁팬인데	-11.4677
검사	-11.468
▁비행	-11.4681
▁극적	-11.4684
마른	-11.4687
멋잇	-11.4689
박스	-11.4691
▁구할	-11.4691
없을정도로	-11.4691
그거	-11.4692
줄알고	-11.4693
///	-11.4694
중에서도	-11.4694
▁그림자	-11.4696
▁있는것도	-11.4698
▁직장	-11.47
▁스톤	-11.4706
▁오우	-11.471
▁추구	-11.4714
▁영향	-11.4716
났습니다	-11.4716
▁개떡	-11.4717
▁기억하고	-11.4717
주인공의	-11.4727
직한	-11.4728
▁개미	-11.4729
▁호러영화	-11.4729
▁그러다	-11.4734
▁한국드라마	-11.4736
▁마이너스는	-11.4737
▁개봉작	-11.4739
거아닌가	-11.474
▁일깨워	-11.474
▁괜찮은영화	-11.4741
▁끝부분	-11.4743
부끄럽	-11.4746
거같고	-11.4746
▁있었을	-11.4747
유치한	-11.4748
센트	-11.4749
비행	-11.475
▁계속해서	-11.4753
재밋어	-11.4755
것두	-11.4756
엎	-11.4757
one	-11.4758
▁가르쳐	-11.476
▁살자	-11.476
▁소소하	-11.4764
▁집중하게	-11.4764
▁이미지가	-11.4766
해야하나	-11.4767
ha	-11.4767
툭	-11.4768
딜	-11.4769
▁설치	-11.477
;;;;;;	-11.4771
밉	-11.4771
찜	-11.4771
위원회	-11.4771
괘	-11.4771
릉	-11.4771
▁토요명화	-11.4772
됀	-11.4772
엥	-11.4772
짚	-11.4772
▁로멘틱	-11.4772
▁아팠다	-11.4772
▁애틋한	-11.4772
▁어메이징	-11.4772
▁엄태웅	-11.4772
▁엮어	-11.4772
▁이스라엘	-11.4772
▁롱테이크	-11.4772
▁여실히	-11.4772
뜰	-11.4772
▁자존심	-11.4772
▁유역비	-11.4772
붓	-11.4772
▁무작정	-11.4772
▁배슬기	-11.4772
▁제레미	-11.4772
▁신들린	-11.4772
▁손꼽히는	-11.4772
▁피라냐	-11.4772
▁나비효과	-11.4772
▁120	-11.4772
▁쓰나미	-11.4772
질않나	-11.4772
릅니다	-11.4772
▁신비로운	-11.4772
▁헌신	-11.4773
▁멋집니다	-11.4773
▁근육	-11.4773
▁아키라	-11.4773
▁흠뻑	-11.4773
▁여진구	-11.4773
펙트	-11.4773
▁나도모르게	-11.4773
▁씹노잼	-11.4774
▁손꼽	-11.4774
주의를	-11.4775
▁생겨	-11.4775
▁2009	-11.4776
▁신뢰	-11.4776
▁일어났	-11.4776
▁애썼	-11.4776
▁섬세하게	-11.4776
▁늑대인간	-11.4777
▁MC	-11.4777
▁우울증	-11.4777
▁먹먹해지는	-11.4777
▁가족끼리	-11.4777
▁명량	-11.4778
▁돋보였던	-11.4778
▁똥칠	-11.4779
▁목표	-11.4779
▁건축	-11.4779
버렷	-11.478
▁보여줬는데	-11.4781
▁타짜	-11.4781
▁모를까	-11.4781
▁화끈하게	-11.4781
▁발암	-11.4781
▁이것만	-11.4782
▁잼있었음	-11.4784
▁정답	-11.4785
▁린치	-11.4786
▁억지웃음	-11.4786
▁자식들	-11.4787
▁빠르게	-11.4787
▁풀어가는	-11.4787
▁강철	-11.4787
박현지	-11.4787
▁케이스	-11.4788
▁지성	-11.4788
▁독재	-11.4789
▁수위	-11.479
▁평점테러	-11.479
▁양산	-11.4791
었죠	-11.4791
잘만들	-11.4791
▁앞서간	-11.4792
▁일관성	-11.4792
▁윌리엄스	-11.4793
▁보석같은	-11.4794
16	-11.4797
껀데	-11.4799
▁대하여	-11.4799
질질끄	-11.48
▁선배	-11.48
▁유행어	-11.48
▁물론이고	-11.48
▁초점을	-11.4802
▁관대하다	-11.4803
▁야한장면	-11.4804
▁사람으로서	-11.4805
▁천재적인	-11.4805
마시	-11.4805
▁원망	-11.4805
▁지루합니다	-11.4806
▁남김	-11.4806
▁감성적인	-11.4807
▁평작	-11.4807
▁여고생	-11.4807
▁해학	-11.4807
▁도와주	-11.4808
▁봤으니	-11.4808
▁조아요	-11.4808
하는건데	-11.481
▁높음	-11.481
▁배운	-11.4811
▁못따라	-11.4812
▁니콜키드먼	-11.4813
문화를	-11.4814
▁그럴듯한	-11.4814
서방	-11.4815
었더라면	-11.4815
▁전반	-11.4816
▁유치원	-11.4816
▁이민호	-11.4816
▁스크린으로	-11.4817
▁극장개봉	-11.482
▁포장한	-11.4821
▁왜이런	-11.4824
▁이러면	-11.4827
▁이전에	-11.4828
▁잊혀지지가	-11.483
저예산	-11.4831
▁최대한	-11.4831
▁인셉션	-11.4831
▁판타스틱	-11.4831
아무튼	-11.4833
마누라	-11.4834
▁망해	-11.4835
▁잡지	-11.4835
꼭보세요	-11.4836
인형	-11.4836
▁기대하면서	-11.4838
▁줄줄	-11.484
▁나온건	-11.484
▁시스템	-11.4841
▁공효진	-11.4841
▁잼있는데	-11.4842
▁찾았다	-11.4842
▁조디	-11.4843
엉망	-11.4844
따름	-11.4844
재미도없고	-11.4846
▁엉뚱한	-11.4846
▁무방	-11.4847
본다면	-11.4847
▁잊혀지지않는	-11.4847
▁성질	-11.4848
▁돌아온	-11.4848
스럽지	-11.485
하셔서	-11.485
어릴때	-11.485
▁만들어내는	-11.4852
▁어이없게	-11.4854
▁에바	-11.4858
맨날	-11.4859
▁동원	-11.4859
스케일	-11.4859
▁사랑과전쟁	-11.4862
안나온다	-11.4862
▁강추입니다	-11.4863
▁따듯하	-11.4865
▁올린	-11.4865
▁너무좋아요	-11.4866
본적이	-11.4867
거려	-11.4867
▁써먹	-11.4868
▁김남길	-11.4869
▁아들의	-11.487
들과는	-11.487
▁유아	-11.4873
▁고생한	-11.4873
▁어렵고	-11.4874
▁특성	-11.4875
확인	-11.4876
겠습니까	-11.4877
됐으면	-11.4877
▁종말	-11.4877
▁잘생김	-11.4878
잡아먹	-11.4878
▁강인	-11.4881
▁풀어나가	-11.4881
군대	-11.4881
▁가족드라마	-11.4884
하겠네	-11.4884
이래서	-11.4886
라기보단	-11.4886
▁놀람	-11.489
▁기대안	-11.4891
▁리플	-11.4891
▁감동까지	-11.4891
▁식상함	-11.4892
▁않겠다	-11.4894
교사	-11.4894
▁본다고	-11.4895
성님	-11.4896
▁기원	-11.4897
▁사서	-11.4898
▁시리즈물	-11.49
▁친구들이	-11.4901
▁연기들도	-11.4902
▁mbc	-11.4906
▁흥미가	-11.4906
봤을때	-11.4907
세끼	-11.4908
잤다	-11.4909
▁가게	-11.491
▁시사회로	-11.491
▁된다면	-11.4911
하겠는데	-11.4914
▁↓	-11.4915
미녀	-11.4915
▁동심을	-11.4918
▁감성에	-11.4919
해야되	-11.4919
▁받지	-11.4921
▁복잡하	-11.4922
▁노잼이다	-11.4923
▁별하나도	-11.4924
▁누르	-11.4924
▁퉤	-11.4927
▁따라서	-11.4928
▁형성	-11.4931
▁비슷하다	-11.4931
성격	-11.4932
잼씀	-11.4933
▁암시	-11.4934
▁어색해	-11.4938
▁만들지마	-11.4939
▁재미없는데	-11.4939
▁대박입니다	-11.4939
생각하게	-11.494
▁보여주려	-11.4942
겁나	-11.4944
▁앞뒤가	-11.4947
▁기존의	-11.4948
▁높았	-11.4949
▁갑갑	-11.4949
▁똑같아	-11.4952
▁하나경	-11.4953
▁이용해	-11.4955
▁오덕	-11.4957
리즈	-11.4958
▁재치	-11.4961
▁댓글알바	-11.4961
▁가치있	-11.4961
▁전투기	-11.4961
▁위로가	-11.4961
할뻔	-11.4964
▁약하고	-11.4965
▁미친놈	-11.4972
▁기다리는	-11.4972
▁금지	-11.4974
영화보면서	-11.4975
▁벗는	-11.4976
▁추천해주고	-11.4977
▁반전까지	-11.4978
▁참신함	-11.4979
▁때부터	-11.4983
답이없다	-11.499
받음	-11.4992
보고나면	-11.4993
▁쥐어	-11.4993
▁살지	-11.4995
졸리	-11.4995
행님	-11.4998
▁보내는	-11.5003
▁주는건	-11.5006
▁의외	-11.5007
▁투자한	-11.5008
▁베리굿	-11.501
▁매기	-11.5011
둬	-11.5011
▁포기한	-11.5014
▁찍으면	-11.5014
거린다	-11.5015
대본	-11.5017
▁가는데	-11.5018
▁이웃	-11.5019
▁수호	-11.5022
▁얼굴에	-11.5022
▁뭉클한	-11.5025
거같아서	-11.5026
당함	-11.5027
▁궁금하지	-11.5029
▁펑펑울	-11.503
듯해요	-11.503
해본다	-11.5031
▁징그럽	-11.5033
▁돌아와	-11.5033
런지	-11.5034
▁인간미	-11.5035
하기에는	-11.5035
▁돋는다	-11.5036
나올뻔	-11.5037
뭐라	-11.5042
폐지	-11.5044
▁나오지만	-11.5046
버리네	-11.5051
전투	-11.5052
▁안타까울	-11.5054
▁노래들	-11.5056
재밋고	-11.5056
되니	-11.5057
겄	-11.5061
▁최강의	-11.5061
하는거지	-11.5062
▁중요하지	-11.5064
▁이렇다	-11.5066
같습니다	-11.5068
연기짱	-11.5068
▁한국인들	-11.507
▁일베충	-11.5071
▁벗기	-11.5073
▁줫	-11.5075
▁관계자	-11.5076
해야만	-11.5077
art	-11.5079
▁깨달	-11.5082
▁안되지	-11.5085
▁것들은	-11.5091
▁진실은	-11.5092
닼	-11.5097
편보단	-11.51
▁행동들	-11.51
\	-11.5105
킥	-11.5105
뻘	-11.5105
○	-11.5105
핸	-11.5105
왈	-11.5105
▁빈디젤	-11.5105
▁어울렸	-11.5105
▁쫄깃	-11.5105
▁클라이막스	-11.5105
깽	-11.5105
꺅	-11.5105
늠	-11.5105
밭	-11.5105
뺐	-11.5105
휴잭맨	-11.5105
▁숨막히는	-11.5105
▁윌스미스	-11.5105
▁죄책감	-11.5105
▁트와일라잇	-11.5105
떨어뜨리	-11.5105
톨	-11.5105
▁기승전결	-11.5105
▁캐서린	-11.5105
▁약빨고	-11.5105
▁장만옥	-11.5105
▁김래원	-11.5105
▁미션임파서블	-11.5105
▁서인국	-11.5105
▁나홀로집에	-11.5105
▁뜬금포	-11.5105
▁눈높이	-11.5105
▁부조리	-11.5105
▁지독한	-11.5105
데미무어	-11.5105
▁정유미	-11.5105
암걸릴	-11.5105
▁최지우	-11.5105
캡틴	-11.5105
▁에너지	-11.5105
▁슈스케	-11.5105
▁고마워요	-11.5105
▁정사씬	-11.5105
▁민주주의	-11.5105
▁하여간	-11.5105
▁설렘	-11.5106
▁왔다갔다	-11.5106
플러스	-11.5106
▁앤딩	-11.5106
▁쾌감	-11.5106
▁조재현	-11.5107
▁탐욕	-11.5107
▁필립	-11.5107
▁유치원생	-11.5107
▁사소한	-11.5107
▁2006	-11.5108
▁놀랄	-11.5108
▁빠져든다	-11.5108
▁속도감	-11.5108
▁이겨내	-11.5108
▁알겠으나	-11.5108
▁헛소리	-11.5109
▁다르겠지만	-11.5109
하지말자	-11.511
▁엽기적인	-11.5111
▁회복	-11.5112
들처럼	-11.5112
▁봤으나	-11.5112
▁최강희	-11.5113
▁폭파	-11.5114
▁시간여행	-11.5116
이런걸	-11.5116
▁인상적이었다	-11.5117
▁은행	-11.5118
콩콩	-11.5118
▁대학교	-11.5118
▁웃길	-11.5118
▁좋아하면	-11.5118
원작을	-11.5119
▁그리움	-11.5119
웃고	-11.512
▁어필	-11.512
▁가질	-11.512
▁팬티	-11.512
xx	-11.5121
▁여자친구랑	-11.5122
고양이	-11.5122
줬음	-11.5123
▁알았습니다	-11.5123
▁일방적	-11.5125
▁베끼	-11.5126
▁늘어지는	-11.5126
▁영구와	-11.5127
으라고	-11.5127
▁둘러	-11.5129
▁발악	-11.5129
▁재미없었던	-11.513
▁운전	-11.5131
▁동참	-11.5133
보겠다	-11.5135
▁차분하	-11.5135
할거면	-11.5136
▁기독교인	-11.5137
▁건물	-11.5138
▁기술력	-11.5138
봣네요	-11.5138
▁취미	-11.5139
왠	-11.5139
모드	-11.514
▁넣어서	-11.5142
▁들었는데	-11.5144
wo	-11.5144
▁먹먹하고	-11.5145
▁브루스윌리스	-11.5148
▁유쾌하다	-11.5148
▁괜찮지만	-11.515
▁동경	-11.515
▁딱봐도	-11.515
버그	-11.5151
▁흐른다	-11.5151
▁상당	-11.5152
▁종류	-11.5152
파리	-11.5155
▁2%	-11.5156
▁나와라	-11.5157
444	-11.5157
33	-11.5159
못보겟	-11.5159
▁별반	-11.5161
▁비슷하게	-11.5162
▁어렵게	-11.5163
▁특집	-11.5164
▁베니	-11.5165
▁생각지도	-11.5166
▁재밌음ᄏᄏ	-11.5167
뜬	-11.5169
▁그려진	-11.5169
맡	-11.517
ᄊ	-11.5174
▁제인	-11.5174
▁대세	-11.5174
▁만들었네요	-11.5175
느꼈	-11.5176
보세여	-11.5176
열심히	-11.5177
시대를	-11.5178
good	-11.5178
힐링	-11.5178
▁공리	-11.5179
▁풋풋함	-11.518
▁조성	-11.5181
▁밝고	-11.5182
▁아휴	-11.5183
영활	-11.5183
재밌었어요	-11.5183
▁비교할	-11.5184
젠장	-11.5185
▁어이상실	-11.5186
▁기부	-11.5188
▁우울하고	-11.5188
뻔한스토리	-11.5193
이런영화가	-11.5196
성장	-11.5197
▁신부	-11.5198
▁토르	-11.52
▁지나치	-11.5202
우리가	-11.5204
▁디테일한	-11.5206
라이더	-11.5207
▁마지막부분	-11.5209
▁안죽	-11.5209
나오지	-11.5212
▁좋으면	-11.5213
▁보이네요	-11.5213
▁외에	-11.5214
▁실력이	-11.5215
▁엔딩까지	-11.5215
해주면	-11.5216
▁재밌냐	-11.5216
돈아까워	-11.5218
▁개망	-11.5219
▁싸이	-11.522
gh	-11.5221
▁보기전에	-11.5222
▁주었다	-11.5225
▁상관없이	-11.5225
▁발랄	-11.5225
되는거	-11.5226
▁일상의	-11.5226
▁죽여버리고	-11.5226
안습	-11.5227
인건가	-11.523
▁않으면서	-11.5231
▁즐거웠다	-11.5232
▁못봤다	-11.5232
▁동생이	-11.5233
▁ᄀᄀ	-11.5233
있었지만	-11.5234
▁접한	-11.5235
▁나중에는	-11.5236
▁법칙	-11.5236
▁불가능한	-11.5239
▁고어물	-11.524
▁부족했다	-11.5241
싶었는데	-11.5243
무리	-11.5244
▁될까	-11.525
▁매력적이고	-11.5251
보고싶은영화	-11.5252
했어야	-11.5254
▁멜로물	-11.5257
▁나두	-11.5262
▁벗고	-11.5262
▁애기들	-11.5263
▁만화로	-11.5269
갔음	-11.5269
그만큼	-11.5273
▁긍정적	-11.5274
▁죄를	-11.5276
▁우리와	-11.5276
▁내려가	-11.5278
▁담겨	-11.5279
아닌가요	-11.528
▁한달	-11.5284
없냐	-11.5285
▁찾았	-11.5286
뿌리	-11.5286
▁진리다	-11.5288
미소	-11.5289
보는것	-11.529
시간짜리	-11.529
올드보이	-11.5292
뛰어	-11.5296
딴식으로	-11.5298
▁가네요	-11.5299
▁사랑입니다	-11.53
▁예상가능	-11.53
눈물흘	-11.5313
▁PD	-11.5315
못보겠	-11.5315
om	-11.532
가능한	-11.532
▁잔인하다	-11.5323
▁한번보고	-11.5324
▁시사	-11.5326
▁수단	-11.5326
▁아이디어가	-11.5329
▁우롱	-11.5329
착한	-11.533
▁잼있고	-11.5331
▁봤었	-11.5335
▁담았	-11.534
▁부실한	-11.5341
▁갔다가	-11.5342
▁여자배우	-11.5343
▁야동을	-11.5347
▁역겹	-11.5354
▁소원	-11.5355
유리	-11.5356
▁씁쓸하	-11.5357
▁도로	-11.5363
▁지상	-11.5364
▁각각	-11.5364
날림	-11.5368
▁펜	-11.537
▁아름답지	-11.5371
▁기억남	-11.5378
박사	-11.5382
▁아픔이	-11.5383
▁고전영화	-11.5385
▁자격	-11.5386
▁수술	-11.5391
▁본거지	-11.5394
▁자막이	-11.5396
하심	-11.5399
는거보고	-11.5401
▁돋보인	-11.5401
피어스	-11.5403
생각하고	-11.5403
솜	-11.5406
▁계신	-11.5406
▁성장기	-11.5407
역시나	-11.5407
▁수십	-11.5408
▁vs	-11.5409
▁가고싶	-11.5413
▁만들어놨	-11.5416
스톤	-11.542
▁담담	-11.5424
▁뜻이	-11.5426
풀리	-11.5432
▁노력은	-11.5435
괜찮았	-11.5438
▁최고의드라마	-11.5439
▁있을듯	-11.544
▁아역들	-11.5441
▁건진	-11.5445
감명깊	-11.5446
씁	-11.5448
샌	-11.5448
늑	-11.5448
욜	-11.5449
|	-11.5449
▁불꽃	-11.5449
텅	-11.545
피노키오	-11.545
·	-11.545
▁무미건조	-11.545
▁봉태규	-11.545
▁브래드	-11.545
▁안젤리나	-11.545
셰	-11.545
짭	-11.545
쵸	-11.545
▁어울릴	-11.545
▁어중간한	-11.545
▁하루종일	-11.545
쿵푸팬더	-11.545
+_+	-11.545
▁간신히	-11.545
짬	-11.545
▁김승우	-11.545
▁차인표	-11.545
▁훼손	-11.545
▁합리화	-11.545
▁벅찬	-11.545
▁어리석	-11.545
▁삼국지	-11.545
▁뽀로로	-11.545
▁수고하셨습니다	-11.545
패밀리	-11.545
▁타이밍	-11.545
▁두려워	-11.545
▁쪽바리	-11.545
▁맥라이언	-11.545
▁미개한	-11.545
▁퍼펙트	-11.545
▁크리스틴	-11.5451
▁감사드립니다	-11.5451
▁AV	-11.5451
▁부끄럽다	-11.5451
▁베낀	-11.5451
▁올만에	-11.5451
읍니다	-11.5452
▁말이필요없음	-11.5452
▁농락	-11.5452
▁슬플	-11.5452
▁꺼버림	-11.5452
▁짝사랑	-11.5452
▁흔하디	-11.5452
ᅩᅩ	-11.5452
▁토할뻔	-11.5452
▁기분나쁜	-11.5453
▁아이스	-11.5453
▁아메리칸	-11.5454
▁볼까말까	-11.5454
▁한결같	-11.5455
▁한몫	-11.5455
▁견디	-11.5455
▁빚	-11.5455
▁있었을텐데	-11.5456
▁주고싶은	-11.5456
@@	-11.5456
▁종결	-11.5456
▁고딩때	-11.5456
▁힘듬	-11.5457
▁그렇다치고	-11.5457
대상	-11.5457
ir	-11.5458
▁2007	-11.5458
▁망했는지	-11.5459
▁따뜻하다	-11.5459
▁사례	-11.546
▁잘생겼다	-11.546
▁개성있는	-11.5461
▁반항	-11.5461
▁유치하지	-11.5462
10000	-11.5462
▁종종	-11.5463
▁말이필요	-11.5464
▁명예	-11.5464
▁아쉽습니다	-11.5465
▁스탈	-11.5466
▁욕설	-11.5466
줄알았음	-11.5466
▁호강	-11.5467
▁근본	-11.5467
▁어찌보면	-11.5468
▁마련	-11.5468
▁개졸작	-11.5469
▁안타깝지만	-11.5469
▁어지러	-11.5469
자유	-11.5471
▁못알아	-11.5472
▁미련	-11.5472
▁안무섭다	-11.5472
▁그러니까	-11.5472
▁팬이라서	-11.5473
▁잼따	-11.5475
인줄알고	-11.5478
▁끄고	-11.5478
▁결혼식	-11.548
▁숨겨	-11.5481
▁재밌겠다	-11.5481
▁위선	-11.5482
▁떨어지지만	-11.5483
▁은희	-11.5483
▁개인적	-11.5486
▁최선을	-11.5488
▁철학이	-11.549
▁바꿔라	-11.549
▁빛났	-11.549
▁인연이	-11.5492
▁퀴어영화	-11.5492
▁공각기동대	-11.5494
▁나타난	-11.5498
▁한국식	-11.5499
▁재연	-11.5499
▁누구냐	-11.5499
▁친일	-11.55
쿨	-11.55
ab	-11.5501
▁인피니트	-11.5504
▁최악이었다	-11.5505
▁개실망	-11.5507
▁시점에서	-11.5507
▁자매	-11.5507
▁힘드네	-11.5508
▁무시하고	-11.5509
▁오늘날	-11.5511
▁나오던	-11.5511
▁좋아라	-11.5513
드럽게	-11.5514
만들면	-11.5514
▁숨어	-11.5515
▁평타	-11.5517
▁허술함	-11.5518
▁어색해서	-11.5519
▁추천해요	-11.5519
▁박사	-11.5519
▁찍어라	-11.5522
▁국민들	-11.5522
▁지루함과	-11.5524
▁해피엔딩으로	-11.5525
▁구리고	-11.5526
▁열번	-11.5527
▁악당이	-11.5528
▁곁에	-11.5528
왜이래	-11.5529
▁말대로	-11.553
▁또한번	-11.553
▁나왔다는	-11.553
펜	-11.553
샘	-11.5531
닭	-11.5531
아름답	-11.5532
▁거시기	-11.5533
▁쩔고	-11.5533
▁머라	-11.5533
본방사수	-11.5534
만드냐	-11.5534
무조건	-11.5535
바꿔	-11.5536
▁좋아하던	-11.5536
편안하게	-11.5536
▁피트	-11.5536
-10	-11.5536
안보고	-11.5536
잼있어요	-11.5537
눈빛	-11.5537
▁바뀌었	-11.5539
▁해보고	-11.554
최강	-11.5541
재밌었음	-11.5542
블루	-11.5543
폭발	-11.5544
부탁	-11.5546
젊은	-11.5549
▁싫어서	-11.5549
▁표현된	-11.5549
▁작품성을	-11.5553
▁내용이지만	-11.5555
▁멋졌다	-11.5556
▁코믹연기	-11.5556
▁고등학교때	-11.5557
천국	-11.5557
▁내리는	-11.5559
어쩜	-11.556
갈등	-11.556
▁아들을	-11.5562
응원	-11.5562
▁샀	-11.5564
환경	-11.5564
취급	-11.5564
▁들려	-11.5565
▁않기	-11.5565
리얼하게	-11.5565
▁해주길래	-11.5566
캐릭터가	-11.5572
▁뻔뻔한	-11.5578
▁갖는	-11.5578
월드	-11.5579
많은데	-11.5579
▁모두들	-11.558
▁생각남	-11.558
▁저예산영화	-11.5581
▁오유	-11.5584
▁수십번	-11.5587
수있다는	-11.5587
▁화장	-11.5589
▁최후의	-11.5593
상처	-11.5594
보다더	-11.5594
▁망했다	-11.5595
달려	-11.5595
▁잠들었	-11.5596
▁그치만	-11.5597
점이상은	-11.5598
세력	-11.5599
▁적극	-11.5603
▁말길	-11.5604
▁비비	-11.5604
부담없이	-11.5607
때리고	-11.5609
해주시	-11.561
좋았던	-11.5614
▁미치	-11.5616
▁-1	-11.5617
겠고	-11.5617
▁어이없어	-11.5618
▁용기를	-11.5618
나와라	-11.5618
▁죽을때	-11.5621
▁심장을	-11.5622
34	-11.5623
▁머리속에	-11.5624
매력있	-11.5624
열자	-11.5628
▁예술이다	-11.5629
▁많을	-11.5631
잡아	-11.5631
▁사전	-11.5632
에효	-11.5632
▁바비	-11.5637
▁재밌게봤습니다	-11.5638
뻔하고	-11.5642
▁이거보면	-11.5642
▁기분이다	-11.5646
봐야겠다	-11.5651
▁여름에	-11.5651
▁조카들	-11.5653
▁충격과	-11.5656
▁뭐죠	-11.5658
▁또다시	-11.5658
▁바보로	-11.566
잼있게	-11.566
▁나오길	-11.5662
~~~~~~~~~~~	-11.5662
▁느려	-11.5662
▁돌리도	-11.5665
▁맞지만	-11.5667
넣은	-11.5669
▁고기	-11.567
▁작전	-11.567
▁권리	-11.5673
▁면도	-11.5675
▁죽임	-11.5687
햇으면	-11.5688
많네	-11.5689
재밋게봣	-11.569
하시지	-11.5692
man	-11.5693
할래	-11.5693
▁아까울정도	-11.5703
▁미니	-11.5705
28	-11.5706
터지고	-11.5707
읽어	-11.5711
▁전반부	-11.5712
▁수밖에	-11.5714
▁197	-11.5714
▁챙겨보는	-11.5715
▁범인은	-11.5715
▁경찰들	-11.5717
▁쓸쓸	-11.572
▁흔하	-11.5724
로썬	-11.5726
▁망쳤	-11.5729
▁전문가들	-11.5733
▁애쓴	-11.5734
삶을	-11.5734
▁존재하지	-11.5737
▁네이버에서	-11.5739
버트	-11.574
▁생각되는	-11.5743
▁보이는데	-11.5744
고싶지	-11.5744
▁만났다	-11.5744
내돈	-11.5745
놀라	-11.5748
하시네	-11.5748
▁늘어놓	-11.5749
▁중국인	-11.575
▁오랫만	-11.5753
▁마시고	-11.5761
▁있을때	-11.5761
▁화내	-11.5766
중심	-11.5773
▁활동	-11.5774
줄께	-11.5774
▁다가왔	-11.5775
▁일점도	-11.578
▁이런쓰레기	-11.5786
▁찾게	-11.579
▁보지말고	-11.5791
▁주변에	-11.5791
▁위안	-11.5791
김정	-11.5793
▁당할순	-11.5795
▁드러나	-11.5796
▁잠만	-11.5797
▁과대평가	-11.5802
얀	-11.5802
▁되니	-11.5802
처먹	-11.5803
딕	-11.5806
템	-11.5806
헨	-11.5806
퉁	-11.5806
^0^	-11.5807
▁스칼렛	-11.5807
▁어쨋든	-11.5807
류승룡	-11.5807
▁로멘스	-11.5807
▁코스트너	-11.5807
▁타이타닉	-11.5807
▁파트너	-11.5807
갤	-11.5807
▁개나소나	-11.5807
뱃	-11.5807
▁꼽히는	-11.5807
▁유승호	-11.5807
▁고릴라	-11.5807
▁맛깔나	-11.5807
윤시윤	-11.5807
▁멸망	-11.5807
▁느꼇	-11.5807
▁풍부한	-11.5807
▁흔해빠진	-11.5807
▁테스트	-11.5807
▁저지른	-11.5807
▁흔치	-11.5807
▁잘나가다	-11.5808
▁기가막히	-11.5808
▁하루하루	-11.5808
▁스탠	-11.5808
out	-11.5809
▁완존	-11.5809
▁바꿀	-11.5809
▁눈물샘	-11.5809
▁얻은	-11.5809
▁저버리지	-11.5809
▁무섭지도않고	-11.581
울었다	-11.581
▁오래오래	-11.581
▁쇼킹	-11.581
▁위안부	-11.5811
▁감동적이예요	-11.5812
▁정신세계	-11.5813
▁찍었을까	-11.5813
▁명곡	-11.5813
▁수준낮은	-11.5814
▁잔잔히	-11.5814
▁욕나옴	-11.5814
▁애절하	-11.5814
▁두렵	-11.5815
▁주지훈	-11.5816
지르는	-11.5816
▁돈아까움	-11.5816
▁살아간다	-11.5816
▁르네	-11.5816
▁행복했습니다	-11.5818
▁명절	-11.5818
▁물결	-11.5819
▁돈들여	-11.582
▁어쩔수없이	-11.582
▁웃기려고	-11.582
거슬려	-11.5821
▁아이디	-11.5822
▁세번째	-11.5822
주시길	-11.5822
▁훌륭합니다	-11.5822
거란	-11.5823
저러	-11.5824
▁고집	-11.5824
▁남자친구	-11.5825
▁형태	-11.5825
▁당할	-11.5825
▁국제	-11.5825
▁떠오	-11.5826
▁왕따	-11.5827
▁찍어도	-11.5828
▁바람에	-11.5829
▁어쩌구	-11.583
▁오줌	-11.5831
▁만행	-11.5831
▁기발하고	-11.5831
▁안가네요	-11.5831
줄려고	-11.5832
▁갈리는	-11.5835
▁속편은	-11.5836
마루	-11.5836
▁재밌구만	-11.5836
▁괜찮아요	-11.5838
▁걸릴	-11.5838
▁못되는	-11.5839
▁외모가	-11.584
중엔	-11.584
▁충격적이다	-11.5841
▁(10	-11.5842
▁가난한	-11.5842
▁잉여	-11.5843
▁눈물나는	-11.5845
▁세명	-11.5846
▁나이트	-11.5846
▁지루했던	-11.5846
▁거친	-11.5848
▁흘릴	-11.5848
▁두가지	-11.5848
▁건달	-11.5849
▁반복되는	-11.5851
▁나비	-11.5852
볼라고	-11.5853
▁흥미진진하게	-11.5854
▁이건아니다	-11.5855
봤나	-11.5855
ap	-11.5856
▁과하게	-11.5857
▁저격	-11.5857
생기	-11.5857
▁무한한	-11.5858
끄러	-11.5858
주말	-11.5858
▁재미없던데	-11.5858
버리면	-11.5859
▁분위기만	-11.5861
▁엄마를	-11.5863
되야	-11.5863
▁미치겠	-11.5863
보게된	-11.5865
▁다시보기로	-11.5866
▁말하려고	-11.5866
블리	-11.5867
▁공간에서	-11.5869
▁달달하고	-11.587
▁서른	-11.587
▁되려	-11.5873
▁꾹	-11.5873
추천합니다	-11.5875
▁제공	-11.5875
▁돋는	-11.5878
떡칠	-11.5879
▁고쳐	-11.5881
▁꽃보다	-11.5882
▁모르면	-11.5882
▁덮어	-11.5882
▁사라지고	-11.5883
했는가	-11.5883
▁없으면서	-11.5883
▁윤계상	-11.5884
▁상관없는	-11.5886
무서움	-11.5888
볼꺼	-11.589
멍	-11.589
MB	-11.589
▁재판	-11.5896
▁길어	-11.5897
▁오른	-11.5897
▁느낄수있는	-11.59
쪼	-11.5901
▁늘리	-11.5901
과함께	-11.5901
▁보시고	-11.5901
▁않았다면	-11.5902
땀	-11.5902
▁유치하게	-11.5903
냉	-11.5903
및	-11.5904
둘다	-11.5904
토크	-11.5904
편보고	-11.5904
아쉬움	-11.5904
쓰래기	-11.5905
▁살릴	-11.5905
굉장히	-11.5905
▁패기	-11.5906
씁쓸	-11.5906
SF	-11.5907
▁현상	-11.5908
▁되돌아보게	-11.5908
새로운	-11.5909
옵니다	-11.5909
아무것도	-11.591
▁낫네	-11.5911
▁볼수없는	-11.5911
▁눈빛연기	-11.5911
워크	-11.5911
ore	-11.5911
▁주는거	-11.5914
if	-11.5915
재밌었는데	-11.5917
잘봤어요	-11.5917
▁한방에	-11.5918
어쩔	-11.5918
살짝	-11.5922
흥미	-11.5925
▁행복하다	-11.5927
▁다큐영화	-11.5928
▁얼굴만	-11.5929
▁이루어지	-11.5932
만든거	-11.5933
그걸	-11.5933
▁잘봤음	-11.5934
댄스	-11.5935
소재는	-11.5936
▁잠이나	-11.5936
인디	-11.5938
미쳤	-11.5938
▁생각하니	-11.5938
▁저예산으로	-11.5939
좋겠어요	-11.594
1990	-11.5945
귀엽고	-11.5946
▁붙잡	-11.5947
안나옴	-11.5947
했을듯	-11.5949
해야할지	-11.5951
봤고	-11.5954
댄다	-11.5957
해야겠다	-11.5957
▁기대하게	-11.596
▁처음보는	-11.596
▁고개	-11.596
여기서	-11.5964
예쁘고	-11.5965
하고자하는	-11.5965
df	-11.5966
▁바뀌고	-11.5966
왜이렇게	-11.5967
공연	-11.5969
▁팬이라	-11.597
▁상황과	-11.5978
전문가	-11.5978
▁느끼는게	-11.598
행위	-11.5981
어찌	-11.5986
▁바이러스	-11.5987
▁씨리즈	-11.5988
▁av	-11.5989
▁느껴야	-11.599
▁이루는	-11.599
▁못된	-11.5991
▁울림이	-11.5991
크림	-11.5992
▁전달하는	-11.5992
▁사랑이라는	-11.6001
나오는거	-11.6005
세기에	-11.6007
장진영	-11.6007
았어	-11.6007
얘긴	-11.6007
▁사이에	-11.6008
▁수학	-11.6009
▁될거	-11.6009
특선	-11.6013
▁싸울	-11.6016
▁있을까요	-11.6016
▁노아	-11.6018
▁ᄂᄂ	-11.6022
▁유진	-11.6022
▁큰일	-11.6025
▁어디에도	-11.6026
▁악당들	-11.6026
▁나타	-11.6028
▁연출력과	-11.6029
영화라니	-11.6031
되어서	-11.6034
▁강남	-11.6037
▁하늘을	-11.604
끌어	-11.604
날리	-11.604
▁전부인	-11.6041
먹는다	-11.6041
▁내용도없고	-11.6044
▁찾은	-11.6048
▁보냐	-11.6051
▁못하나	-11.6053
▁친구와	-11.6055
ᄀᄀ	-11.6056
▁추적	-11.6057
하신분들	-11.606
▁똥망	-11.606
실수	-11.606
▁환상을	-11.6065
▁안쓰러	-11.6065
▁따분하	-11.6067
오바	-11.6069
▁오그라	-11.6073
▁감동이네요	-11.6075
▁올려주	-11.6078
▁생각날	-11.608
잘만든	-11.6081
▁무리가	-11.6081
▁약자	-11.6081
그렇다고	-11.6082
▁한회	-11.6084
▁비극적인	-11.6086
조작	-11.6094
▁빠지지	-11.6103
재밋엇	-11.6104
▁벗어나지	-11.6109
▁쩔었	-11.6112
요소가	-11.6113
거리며	-11.6113
▁영혼이	-11.6114
스틱	-11.6117
룬	-11.612
▁설명할	-11.6123
▁그것뿐	-11.6123
▁돈아까운	-11.6124
▁후속	-11.6126
▁할머니가	-11.6128
▁들으면	-11.6128
▁이렇	-11.6128
▁모든것	-11.613
말리	-11.6132
주던	-11.6135
▁데뷔	-11.6138
나오더라	-11.6141
▁심해	-11.6142
▁상황들	-11.6144
상식	-11.6146
▁존경스럽	-11.6148
▁긴장을	-11.6149
▁글쓰	-11.6151
▁청춘영화	-11.6152
자극	-11.6154
장면에선	-11.6155
▁달인	-11.6156
캠	-11.6162
않아서	-11.6162
▁설득	-11.6168
▁해리	-11.617
▁사랑할	-11.6172
챙	-11.6174
뺨	-11.6174
실에서	-11.6175
럿	-11.6176
띵	-11.6177
힙	-11.6177
ᅣ	-11.6177
▁베토벤	-11.6177
▁연쇄살인	-11.6177
▁초콜릿	-11.6177
▁히틀러	-11.6177
乃	-11.6177
빽	-11.6177
쑈	-11.6177
융	-11.6177
콕	-11.6177
▁봉준호	-11.6177
▁샌들러	-11.6177
▁생뚱맞	-11.6177
▁어쩐지	-11.6177
▁에니메이션	-11.6177
▁힐러리	-11.6177
댔	-11.6177
ᄋᄉᄋ	-11.6177
▁김민희	-11.6177
▁낄낄	-11.6177
▁이슬람	-11.6177
뎈	-11.6177
▁담백한	-11.6177
▁장동민	-11.6177
▁채민서	-11.6177
반지의제왕	-11.6177
▁박정희	-11.6177
▁어우러져	-11.6177
▁왜이러냐	-11.6177
▁지못미	-11.6177
▁김규리	-11.6177
▁부성애	-11.6177
▁빵터졌	-11.6177
▁밉상	-11.6177
▁송중기	-11.6177
▁벅차	-11.6177
▁역겨웠	-11.6177
▁싼티	-11.6177
▁웨스턴	-11.6177
▁다케시	-11.6177
▁추격전	-11.6177
>_<	-11.6177
▁안무섭고	-11.6177
지망생	-11.6178
▁스무살	-11.6178
▁누굴	-11.6178
▁ᄌᄅ	-11.6179
▁빈틈	-11.6179
▁교도소	-11.6179
▁밀려오는	-11.6179
▁ᄉᄀ	-11.6179
▁충족	-11.6179
▁놓칠	-11.6179
▁기대했건만	-11.6179
▁친일파	-11.618
▁내생의	-11.618
▁다녀온	-11.618
▁무관심	-11.618
▁펼치	-11.618
▁별점테러	-11.618
▁말도안돼	-11.618
▁쫓아	-11.618
▁주제곡	-11.6181
▁이요원	-11.6181
▁싶을정도로	-11.6182
▁괴롭히	-11.6182
▁취권	-11.6183
▁청순	-11.6183
▁브금	-11.6184
▁봤더만	-11.6184
▁창문	-11.6185
▁여운이남는	-11.6186
▁얻는	-11.6188
▁시리즈중에	-11.6188
▁아침부터	-11.6189
▁제외하면	-11.6189
▁열받아서	-11.6189
▁연락	-11.6189
▁다섯개	-11.619
어이가없	-11.619
▁나았습니다	-11.619
▁아니더라도	-11.619
▁평점조작	-11.619
▁4000	-11.6192
▁심은하	-11.6192
▁유해진	-11.6192
▁담겨져	-11.6192
▁기대안하고봤는데	-11.6193
▁조잡하다	-11.6193
▁개쩐다	-11.6193
▁몇년전에	-11.6193
▁궁금하네요	-11.6193
▁죠스	-11.6194
▁생김	-11.6194
▁되버린	-11.6197
▁싶어지는	-11.6198
▁끼워넣	-11.6199
▁무튼	-11.6199
▁압도적인	-11.62
▁대립	-11.6201
▁꾀	-11.6204
▁매력있고	-11.6204
▁기본적인	-11.6204
▁가난	-11.6205
▁안나올	-11.6205
햇어요	-11.6206
▁나아가	-11.6206
▁고루	-11.6206
▁그래두	-11.6207
▁명작중의	-11.6207
▁봤던건데	-11.6207
▁어처구니없는	-11.6209
▁글로	-11.621
▁키스신	-11.621
▁이러냐	-11.6211
▁엄마한테	-11.6211
점줍니다	-11.6212
▁기절	-11.6213
▁금발	-11.6217
▁자극적이고	-11.6217
▁맛있는	-11.6217
▁보았네요	-11.6218
??????	-11.6219
▁관객들에게	-11.6219
영혼을	-11.622
먹어	-11.6221
▁구림	-11.6223
▁권선징악	-11.6225
▁역겹고	-11.6225
사이트	-11.6227
▁호화	-11.6227
▁지능	-11.6229
새끼들은	-11.6229
▁기대됨	-11.6229
▁이상형	-11.6229
▁여전사	-11.623
▁코믹요소	-11.6231
▁필모	-11.6233
▁최신	-11.6234
준비	-11.6234
▁배제	-11.6237
포기	-11.6237
▁입가에	-11.6238
연속	-11.6239
있길래	-11.6241
▁미키	-11.6241
▁이쁘네요	-11.6243
▁감동이에요	-11.6243
졸려	-11.6244
▁기반	-11.6245
없습니다	-11.6245
▁궁금하게	-11.6245
활동	-11.6246
▁sbs	-11.6246
▁따분한	-11.6247
▁촌스럽다	-11.6247
▁놓치지	-11.6249
▁놀랍고	-11.6249
▁있다는걸	-11.625
▁압도적	-11.625
더구만	-11.625
▁넘어가는	-11.6251
지마시길	-11.6251
▁기대하며	-11.6252
▁안나왔으면	-11.6255
▁알았네요	-11.6255
▁망쳐놨	-11.6258
▁예상되는	-11.6261
▁자극적이지	-11.6262
▁마니아	-11.6262
▁되겠다	-11.6262
▁아쉬운건	-11.6264
잼있다	-11.6268
▁산만하다	-11.6269
▁흥미진진하다	-11.6269
▁허비	-11.627
▁오랜만이네	-11.6271
▁이렇지	-11.6273
▁세련되	-11.6274
▁조용하	-11.6276
▁주다니	-11.6277
▁아니였다	-11.6279
퀸	-11.6281
▁봐왔	-11.6283
본드라마	-11.6286
▁개봉할	-11.6286
훨	-11.6288
퀄리티	-11.6288
전문	-11.6288
대한민국	-11.6289
▁아깝게	-11.6289
메세지	-11.6289
▁일깨워준	-11.6289
▁후려	-11.6289
아닐까	-11.6289
▁문명	-11.629
모르겠음	-11.629
▁자막으로	-11.6291
재미있었어요	-11.6292
▁근대	-11.6292
도저히	-11.6292
쵝오	-11.6292
▁1%	-11.6293
▁오버연기	-11.6293
▁정신없이	-11.6293
▁시각으로	-11.6294
▁편지	-11.6296
▁담겨있	-11.6297
나가고	-11.6298
▁않냐	-11.63
민족	-11.6302
▁등장인물들이	-11.6302
조폭	-11.6303
필드	-11.6305
mc	-11.6305
▁재미없으면	-11.6306
역사상	-11.6307
▁수습	-11.6308
▁기억에남는	-11.6309
▁연출이나	-11.631
할아버지	-11.631
▁평범하지	-11.6311
▁개연성없는	-11.6311
▁봤어도	-11.6312
▁절절	-11.6314
나왔음	-11.6315
실제로	-11.6316
재밌는영화	-11.6318
▁필요없고	-11.6319
분까지	-11.6319
▁실망입니다	-11.6319
▁맡았	-11.6322
▁장기	-11.6324
탄생	-11.6325
레알	-11.6328
▁넣고	-11.6328
▁독특함	-11.6329
▁무적	-11.6329
▁뜨고	-11.6329
좋았는데	-11.6332
▁해소	-11.6333
▁근래에	-11.6333
▁의리로	-11.6334
누리	-11.6335
내리는	-11.6335
▁웃긴데	-11.634
아이들이	-11.634
▁골라	-11.6343
먹음	-11.6343
▁황당함	-11.6344
졌는데	-11.6345
▁생각나고	-11.6349
재미없어요	-11.635
▁놀라고	-11.635
▁강요하는	-11.635
▁멤버	-11.635
뿌려	-11.6351
▁촌스럽	-11.6352
앗는데	-11.6354
귀엽다	-11.6354
애미	-11.6354
세월호	-11.6354
▁국내에서	-11.6355
▁전하고자	-11.6356
▁결혼하고	-11.6356
엇지만	-11.6357
▁좋은작품	-11.6358
▁모건	-11.6359
▁지연	-11.6362
않아요	-11.6365
▁포스가	-11.6367
▁흡입력이	-11.6368
▁난생	-11.6368
▁모습들	-11.6369
▁맞지않는	-11.637
▁한순간	-11.6371
▁슬프기도	-11.6374
▁극치를	-11.6374
아깝지않	-11.6375
▁안나와	-11.6376
▁가지게	-11.6381
▁볼거없	-11.6382
지루해서	-11.6382
멋져	-11.6382
졸잼	-11.6382
▁변한	-11.6382
경험	-11.6386
17	-11.6389
▁음악까지	-11.6389
▁스펙타클	-11.639
일본영화	-11.6391
환자	-11.6394
평론가들은	-11.6395
▁스토리전개가	-11.6397
▁옷을	-11.6399
소설을	-11.6403
결과	-11.6403
아침	-11.6411
년뒤	-11.6412
▁명작이지	-11.6414
▁전작보다	-11.6417
흑흑	-11.6417
▁후진	-11.6418
경우	-11.6419
▁낮은거	-11.6421
진씨	-11.6423
진심으로	-11.6427
기위해서	-11.6427
좋았고	-11.6433
만들어서	-11.6434
▁재미없는영화	-11.644
▁느낄수있	-11.6442
▁높고	-11.6443
▁대구	-11.6444
답답하고	-11.6446
현실성	-11.6446
▁재밌으면	-11.6448
볼수없	-11.6459
▁좋던데	-11.646
▁보기전	-11.6461
▁욕심이	-11.6466
멋있다	-11.6467
하게만드는	-11.6473
▁무명	-11.6474
▁보여줘야	-11.6479
나오는데	-11.6483
▁그곳	-11.6485
▁대박임	-11.6489
게이트	-11.6489
모여서	-11.6492
▁별반개	-11.6494
사탕	-11.6499
▁반면	-11.6499
▁되고싶	-11.65
겠구나	-11.65
▁미남	-11.6504
하기위해	-11.6507
▁스토리며	-11.6509
▁재밌더라	-11.6518
▁보수	-11.6524
영화중하나	-11.6525
얘	-11.653
▁잔인하지도	-11.6532
▁좋겠네	-11.6536
▁성의없	-11.6537
시간반	-11.6539
였을까	-11.6539
▁속아	-11.6539
▁담백하	-11.654
있구	-11.6541
듯합니다	-11.6542
밖으로	-11.6544
적이지만	-11.6545
떤	-11.6547
핳	-11.6548
▁감정연기	-11.6549
▁소설로	-11.655
▁걷는	-11.6552
▁아까운데	-11.6553
▁되어버렸	-11.6556
▁출연자들	-11.6557
훔	-11.6559
낌	-11.656
덥	-11.6561
뵈	-11.6562
♬	-11.6562
겜	-11.6562
▁꾸준히	-11.6562
▁드릅게	-11.6562
▁막무가내	-11.6562
▁샤를리즈	-11.6562
▁쒸레기	-11.6562
▁아담샌들러	-11.6562
▁에반게리온	-11.6562
▁오리지날	-11.6562
▁옮겨	-11.6562
▁움직임	-11.6562
▁쿠엔틴	-11.6562
빔	-11.6562
뺴	-11.6562
촉	-11.6562
핡	-11.6562
▁구로사와	-11.6562
▁류덕환	-11.6562
▁맙소사	-11.6562
▁유승준	-11.6562
▁하지마루요	-11.6562
쌔	-11.6562
▁디아즈	-11.6562
▁마동석	-11.6562
▁손오공	-11.6562
▁어울림	-11.6562
▁쥬라기공원	-11.6562
▁강예원	-11.6562
▁브로디	-11.6562
▁저렴한	-11.6562
▁파치노	-11.6562
▁극대화	-11.6562
▁월드컵	-11.6562
▁대기업	-11.6562
▁루즈한	-11.6562
▁숀펜	-11.6562
▁애잔한	-11.6562
▁초월한	-11.6562
▁호프만	-11.6562
▁따스한	-11.6562
▁브라이언	-11.6562
▁배두나	-11.6562
▁이문식	-11.6562
▁침략	-11.6562
▁좌좀	-11.6562
▁한니발	-11.6562
▁원작인	-11.6563
▁여태껏	-11.6563
▁깔깔	-11.6563
▁푹빠져	-11.6563
▁도가니	-11.6563
▁잘어울리는	-11.6564
▁6.5	-11.6564
▁유익한	-11.6564
▁지상파	-11.6564
▁남깁니다	-11.6565
▁두말할	-11.6565
▁낚였어	-11.6565
▁1980	-11.6566
▁새로울	-11.6566
▁흑형	-11.6566
▁의학드라마	-11.6566
▁기다린	-11.6567
▁뻔하디	-11.6567
▁트렌	-11.6567
▁안가네	-11.6567
▁탈락	-11.6568
▁있었으나	-11.6568
▁애잔하	-11.6568
▁기괴하	-11.6568
▁처벌	-11.6569
▁뭐이리	-11.657
▁녹아있는	-11.6571
▁똥싸	-11.6571
▁작업	-11.6571
▁감상평	-11.6573
▁적절하게	-11.6573
▁위대하다	-11.6573
▁오래도록	-11.6574
▁충동	-11.6574
였던거	-11.6574
▁지루했고	-11.6575
탐험	-11.6576
▁재벌	-11.6576
▁개망작	-11.6576
▁느껴져서	-11.6577
▁루크	-11.6577
▁찾아가는	-11.6577
▁현대판	-11.6578
▁그립네요	-11.6578
▁쟤	-11.6579
▁안무서움	-11.6579
귀엽	-11.6579
▁조롱	-11.6579
▁보낼	-11.6579
▁타입	-11.6579
▁노력하는	-11.658
▁반짝	-11.658
다음에	-11.658
▁지나면	-11.6581
▁부패	-11.6581
해주셔서	-11.6581
시각	-11.6582
▁계단	-11.6583
▁양키	-11.6583
▁한두번	-11.6583
껴서	-11.6583
▁불교	-11.6584
▁소련	-11.6585
▁제맛	-11.6586
▁쿠바	-11.6586
▁알려지지	-11.6586
▁후회된다	-11.6588
▁소외	-11.659
▁안주는데	-11.659
▁부끄럽지	-11.659
▁말장난	-11.6591
▁느껴지네요	-11.6593
▁쓸쓸한	-11.6593
>_	-11.6594
▁싶었음	-11.6594
▁이유없이	-11.6594
▁안좋아하는데	-11.6595
되어있는	-11.6596
▁마이크	-11.6596
▁부드럽	-11.66
▁불쌍함	-11.66
▁굵	-11.6601
▁머피	-11.6601
ᅲᅲᅲᅲᅲᅲᅲᅲ	-11.6602
▁주저	-11.6604
▁편히	-11.6608
▁욕나오네	-11.6608
▁건담	-11.6609
▁그런걸	-11.6609
▁중심으로	-11.6612
▁선교	-11.6616
▁오열	-11.6616
됬으면	-11.6616
▁않길	-11.6617
▁상업성	-11.6617
▁편안한	-11.6617
▁최고예요	-11.6618
▁꽝이다	-11.6618
▁전투신	-11.662
▁실화라고	-11.662
▁세심	-11.6622
▁애들한테	-11.6624
▁진지하고	-11.6625
▁파격적인	-11.6626
지않을까	-11.6627
시위	-11.6628
▁윤발	-11.6628
▁짙은	-11.6629
보여줘서	-11.663
▁빌려서	-11.6631
▁벌레	-11.6631
▁다른데	-11.6631
▁들어가서	-11.6631
▁선사하는	-11.6632
▁보내고	-11.6633
▁압권이다	-11.6633
▁있을것	-11.6639
▁구린	-11.664
▁짠하고	-11.664
▁청소년들	-11.6642
없었던	-11.6646
완벽	-11.6647
잊혀지	-11.6649
▁허영	-11.6649
같으면서도	-11.665
▁달려가	-11.6651
▁알차	-11.6651
라더니	-11.6651
?????????	-11.6652
▁그레이	-11.6652
노력	-11.6652
▁오디션	-11.6656
▁아일랜드	-11.6656
업고	-11.6656
▁말까	-11.6657
▁애들용	-11.6661
▁다른분들	-11.6663
보는눈	-11.6664
▁아련하고	-11.6666
▁담으려	-11.667
▁안듬	-11.6671
▁심리묘사가	-11.6672
▁약속	-11.6673
▁치부	-11.6675
▁요즘엔	-11.6675
▁화제	-11.6678
▁드러나는	-11.6682
일텐데	-11.6682
하려다	-11.6685
밝	-11.6685
짤	-11.6687
펑펑	-11.6688
▁안되겠	-11.6688
▁얼마전	-11.6688
예뻐	-11.6689
해피엔딩	-11.6689
▁이것을	-11.6689
▁신발	-11.6689
완성도	-11.6689
을수있	-11.669
핵노잼	-11.669
진부한	-11.6692
최근	-11.6694
▁재밌었어	-11.6694
▁악인	-11.6694
구멍	-11.6694
나머지	-11.6695
모험	-11.6697
탈출	-11.6697
▁그래요	-11.6701
표절	-11.6702
바꾸	-11.6702
▁따르	-11.6702
▁미치게	-11.6706
▁만들까	-11.6708
▁그저그렇	-11.6709
많아서	-11.6709
생각나서	-11.671
▁본시리즈	-11.671
▁떨어졌다	-11.6712
▁개명작	-11.6714
반복	-11.6714
▁여긴	-11.672
비밀	-11.672
▁26	-11.672
조합	-11.672
내인생	-11.6725
▁씁쓸함	-11.6726
재밌습니다	-11.6727
▁상업적	-11.6729
▁영화한편	-11.6734
라는것을	-11.6734
빠들	-11.6735
▁댓글들	-11.6736
거늘	-11.6736
▁바보들	-11.6737
▁이딴영화가	-11.6738
▁지날	-11.6739
재미있네요	-11.6741
▁올인	-11.6742
▁가사	-11.6745
졸립	-11.6746
mi	-11.6748
▁있었지	-11.6749
▁웃다	-11.675
▁느껴져	-11.6753
쩌는	-11.6762
이미지	-11.6764
▁몰고	-11.6766
▁여인의	-11.6772
▁미화한	-11.6772
▁비약	-11.6775
최악이다	-11.6775
▁살해	-11.6777
▁졸다	-11.6779
이뻐	-11.6782
▁저때	-11.6787
▁누구보다	-11.679
▁유럽영화	-11.6793
▁반미	-11.6793
웃기다	-11.6795
▁내면을	-11.68
순수한	-11.6801
헤헤	-11.6802
짜증나서	-11.6805
▁이루어	-11.681
쟁이들	-11.6811
▁역량이	-11.6812
억지로	-11.6814
없던	-11.6818
▁열어	-11.6819
▁진행되	-11.6823
▁지루한건	-11.6825
책읽	-11.6827
▁묘사한	-11.6827
▁지친	-11.6828
뻔함	-11.683
▁볼수있다	-11.6833
▁가슴속에	-11.6833
세용	-11.684
안나오는	-11.6841
수있을까	-11.6844
에로영화	-11.6847
▁의미하는	-11.6849
잔잔하	-11.6849
▁현실적이지	-11.685
없었음	-11.6851
▁남자랑	-11.6852
▁지루하기도	-11.6852
▁이용한	-11.6854
▁만드는데	-11.686
▁얘기하는	-11.6864
▁나치	-11.6869
곁	-11.6871
▁귀한	-11.6873
!!!!!!!!!!	-11.6877
▁걸려	-11.6878
▁알게되었	-11.6878
▁드라마중에	-11.6884
궁금하	-11.6887
지마시고	-11.6887
▁불어	-11.6892
듯한데	-11.6895
mo	-11.6899
▁소중함	-11.6902
▁그걸로	-11.6904
이런영화를	-11.6905
▁짜증날	-11.6907
▁줬어	-11.6909
볼것	-11.6914
▁모르겠는	-11.6914
모아서	-11.692
▁지쳐	-11.6922
▁징징	-11.6923
왕자	-11.6926
▁유명배우	-11.6926
▁보아야	-11.6926
칠때	-11.693
24	-11.6933
픔	-11.6933
▁멀쩡	-11.6934
되며	-11.6936
ver	-11.6937
부른	-11.6939
짜증남	-11.694
▁끌리는	-11.6941
우면서도	-11.6956
te	-11.6959
툰	-11.696
줍	-11.696
옵	-11.6961
탭	-11.6962
떳	-11.6962
▁거슬렸	-11.6962
▁레즈비언	-11.6962
▁불러일으키	-11.6962
▁안드로메다	-11.6962
▁역겨움	-11.6962
▁오다기리	-11.6962
▁유튜브	-11.6962
▁콜린퍼스	-11.6962
無	-11.6962
꺽	-11.6962
낰	-11.6962
욘	-11.6962
햄	-11.6962
▁ᄊᄅᄀ	-11.6962
▁문채원	-11.6962
▁쌈마이	-11.6962
긁	-11.6962
댜	-11.6962
떴	-11.6962
힝	-11.6962
ᅧ	-11.6962
▁디비디	-11.6962
▁박유천	-11.6962
▁베드씬	-11.6962
▁샤말란	-11.6962
▁알렉스	-11.6962
▁유부녀	-11.6962
▁일으킨	-11.6962
뿐만아니라	-11.6962
▁초호화	-11.6962
▁불끄고	-11.6962
아닙니까	-11.6962
▁불멸의	-11.6962
▁장선우	-11.6962
▁리부트	-11.6962
▁억압	-11.6962
▁과언이	-11.6962
▁up	-11.6962
▁무한도전	-11.6962
▁소장가치	-11.6962
▁민주화	-11.6962
▁하이라이트	-11.6962
▁프리퀄	-11.6962
▁쥬라기	-11.6962
▁추격씬	-11.6962
▁해운대	-11.6962
▁김보성	-11.6962
▁인디아나	-11.6962
▁이경영	-11.6962
▁미묘한	-11.6962
▁갱스터	-11.6962
▁길들여	-11.6963
▁수식어	-11.6963
▁지껄이	-11.6963
▁제시카알바	-11.6963
▁성폭행	-11.6963
▁자전거	-11.6963
▁웃음코드	-11.6964
▁닌자	-11.6964
▁은은한	-11.6964
▁축복	-11.6964
▁된장녀	-11.6964
전작	-11.6964
▁스크림	-11.6964
▁음모론	-11.6964
da	-11.6965
▁구지성	-11.6965
▁무서운영화	-11.6965
▁속시원	-11.6965
▁휴먼	-11.6965
▁돋았다	-11.6965
▁디젤	-11.6965
▁대륙	-11.6965
▁이럴수가	-11.6966
▁전달하려는	-11.6966
▁이정진	-11.6966
보는편인데	-11.6966
▁감안해도	-11.6966
▁별로였던	-11.6966
스마트폰	-11.6967
▁못만드나	-11.6967
▁증오	-11.6967
▁비춰	-11.6967
▁근친	-11.6968
▁색감도	-11.6968
▁정신없는	-11.697
▁정신병원	-11.6971
▁몸짓	-11.6971
▁추석	-11.6972
▁투입	-11.6973
▁닭살	-11.6973
▁간절	-11.6974
▁재미없었어요	-11.6974
▁생각됩니다	-11.6974
▁주셔서	-11.6975
▁불과하다	-11.6975
▁모르겠습니다	-11.6975
있으니	-11.6976
어게인	-11.6977
▁싫었	-11.6977
▁스테	-11.6977
▁일일드라마	-11.6977
▁짜증났음	-11.6977
▁오래되	-11.6978
▁울버린	-11.6978
▁있도록	-11.6978
▁맞먹는	-11.6978
▁살아갈	-11.6978
▁누구에게나	-11.6979
▁아름답네요	-11.6979
▁즐길수	-11.698
었으나	-11.698
▁좋았을걸	-11.698
▁쓰레기통에	-11.698
따위는	-11.6981
▁윤재	-11.6982
▁사랑스러움	-11.6982
▁진출	-11.6983
▁좋겠음	-11.6984
▁나혼자	-11.6987
▁보았어요	-11.6988
영애씨	-11.699
▁괜찮았지만	-11.699
▁잃게	-11.6991
▁사랑얘기	-11.6991
▁헷갈리	-11.6991
▁알고싶다	-11.6991
▁소름돋았다	-11.6991
▁동화책	-11.6991
▁보여지는	-11.6991
▁한마리	-11.6991
▁자료	-11.6992
▁교훈적인	-11.6992
▁환영	-11.6992
▁잠재	-11.6993
▁내인생최고의	-11.6996
▁기대하고봤는데	-11.6996
▁빠르기	-11.6997
▁다좋은데	-11.6999
겟음	-11.6999
▁완벽했다	-11.6999
▁인공	-11.6999
▁해주네요	-11.7001
▁고난	-11.7002
▁해설	-11.7002
▁떨어지네요	-11.7002
▁징징대	-11.7002
▁정확한	-11.7003
▁지루하진	-11.7004
hh	-11.7004
▁구입	-11.7004
▁느낀점	-11.7004
▁건질게	-11.7006
▁시끄럽고	-11.7006
▁놀래	-11.7006
▁자신에게	-11.7007
▁바보같은	-11.7008
▁좋은소재	-11.7008
▁sm	-11.7009
▁안보길	-11.7009
▁나른	-11.7009
듣기싫	-11.7013
▁방황하는	-11.7016
▁니미	-11.7018
이라는데	-11.7019
▁만들었음	-11.702
▁볼만했던	-11.7021
▁되었지만	-11.7022
▁어느하나	-11.7023
▁있을수	-11.7025
▁짜릿함	-11.7031
▁팬이지만	-11.7032
▁처음이었다	-11.7037
▁아기자기한	-11.7037
남친	-11.7038
손가락안에	-11.7042
▁웃긴영화	-11.7043
▁35	-11.7043
▁시끄럽	-11.7044
▁아픔과	-11.7044
▁포스터보고	-11.7045
▁루시	-11.7046
폭행	-11.7046
야할듯	-11.7049
▁심사	-11.7049
▁분류	-11.705
▁자다가	-11.7051
그레	-11.7054
▁까먹	-11.7054
▁남습니다	-11.7058
▁하품만	-11.7058
생명체	-11.7059
▁당대	-11.7059
▁비평	-11.7059
좀더	-11.7059
▁전문가평점	-11.706
▁차리	-11.7061
절대보지마	-11.7062
▁궁금함	-11.7063
끝난	-11.7065
▁담겨있는	-11.7066
▁공원	-11.7068
▁좋은영화입니다	-11.7069
bbbb	-11.707
▁설리	-11.707
▁보상	-11.707
▁이뿌	-11.7071
▁하나만으로도	-11.7071
▁재밋던데	-11.7071
▁빠순이	-11.7072
▁별로던데	-11.7073
78	-11.7078
▁93	-11.7081
할수없다	-11.7082
▁짱인듯	-11.7082
▁전반적	-11.7083
▁지겹고	-11.7084
▁잘만들어	-11.7087
욬	-11.7088
▁ever	-11.7089
상실	-11.7089
▁불쾌함	-11.7092
▁재즈	-11.7093
▁짓게	-11.7094
심장	-11.7098
볼걸	-11.7098
▁여운과	-11.7098
싹	-11.7099
▁웬지	-11.7101
개막장	-11.7102
▁있었다면	-11.7102
쯧쯧	-11.7103
어설프	-11.7104
뚫	-11.7104
헉	-11.7104
확실	-11.7104
캬	-11.7105
왠만하면	-11.7106
연예인	-11.7106
충분히	-11.7106
뭥미	-11.7106
▁토미	-11.7106
예쁜	-11.7106
▁심판	-11.7108
재밌게봤어요	-11.7108
짱짱맨	-11.7108
스트레스	-11.7108
이정도면	-11.7108
▁영화사에	-11.7109
▁다르지	-11.711
모델	-11.711
▁따라하기	-11.7112
벌써	-11.7113
▁당해	-11.7114
▁우롱하는	-11.7117
거기다	-11.7119
▁돌아갈	-11.7119
지금봐도	-11.7121
▁피부	-11.7124
ᅲᅲᅲᅲᅲᅲ	-11.7124
명작이다	-11.7124
▁비트	-11.7124
스럽네요	-11.7126
부모님	-11.7129
무술	-11.7131
해달라	-11.7131
▁지켜보	-11.7132
어야할	-11.7133
입장에서	-11.7134
▁터무니없	-11.7139
▁나카	-11.714
해야할듯	-11.7144
분량	-11.7144
재밋는	-11.7145
▁기준이	-11.7147
▁알수있다	-11.7147
▁웃을수	-11.7147
▁분노를	-11.7148
▁못찾	-11.715
마지막장면	-11.715
거밖에	-11.7153
향수를	-11.7157
거같네	-11.716
아니지만	-11.716
낚시	-11.7162
▁개운	-11.7162
▁야한영화	-11.7164
▁생각없는	-11.7172
▁알아보	-11.7175
것뿐	-11.7177
어머니	-11.7178
▁준수	-11.718
떨어지고	-11.7181
▁만족스럽	-11.7181
▁알았어	-11.7181
▁뛰는	-11.7182
▁양반	-11.7183
est	-11.7184
같으면	-11.719
혔다	-11.7191
할께요	-11.7192
▁장사	-11.72
▁보시라	-11.7205
랄라	-11.7206
편이랑	-11.7208
▁관객과	-11.721
▁똑같네	-11.7212
▁보냈	-11.7213
영화중에서	-11.7217
▁만들자	-11.7218
..-_-;;	-11.7218
셨나	-11.7218
▁있는건지	-11.7219
,,,,,,	-11.7219
빨로	-11.7221
순수하게	-11.7222
▁구식	-11.7225
▁미친거	-11.7225
오버	-11.723
떨어진다	-11.723
▁파격	-11.723
▁당당	-11.7233
ᅲᅲᅲᅲᅲᅲᅲᅲᅲᅲᅲᅲᅲᅲᅲᅲ	-11.7236
▁시시하다	-11.7239
▁사라지는	-11.724
▁답답하게	-11.7245
-_-;;	-11.7247
▁호주	-11.7251
po	-11.7258
배역	-11.7263
어쩔수없	-11.7264
신경	-11.7264
▁웃은	-11.7269
사람이라면	-11.7271
할만큼	-11.7275
보고싶은	-11.7278
▁괴수영화	-11.7279
지마요	-11.728
▁거미	-11.7282
▁우울할때	-11.7283
하도록	-11.7288
▁몽환적	-11.7289
만들었는지	-11.7291
▁저딴	-11.7294
해져서	-11.7297
보였다	-11.7299
▁소녀들	-11.7302
▁즐기기	-11.7302
▁말하고자하는	-11.7303
▁개쩔	-11.7313
떨어져	-11.7314
▁허무맹랑	-11.7317
뤄	-11.7321
않은데	-11.7324
너무좋아	-11.7329
거라면	-11.7339
▁선입견	-11.7339
▁유치할	-11.734
▁변하는	-11.735
▁시기에	-11.7352
▁떠올리	-11.7352
팬들	-11.7353
▁긴박	-11.7354
▁싸워	-11.7354
▁설레게	-11.7356
작품성	-11.7358
이쁜	-11.7363
▁자극적	-11.7363
운명	-11.7364
펀	-11.7366
인양	-11.7367
▁외계	-11.7368
▁만든거지	-11.7368
Q	-11.7368
올린	-11.7373
륙	-11.7375
믹	-11.7375
▁디지	-11.7376
꿨	-11.7377
인상깊었	-11.7377
▁삽입	-11.7378
붐	-11.7378
→	-11.7378
썸띵	-11.7378
훼	-11.7378
“	-11.7378
샴	-11.7378
쉘	-11.7378
▁골때리는	-11.7378
▁곽지민	-11.7378
▁데스노트	-11.7378
▁미성년자	-11.7378
▁시덥잖은	-11.7378
▁워싱턴	-11.7378
▁킹왕짱	-11.7378
▁트라우마	-11.7378
、	-11.7378
뇬	-11.7378
멕	-11.7378
박스오피스	-11.7378
뿅	-11.7378
해피앤딩	-11.7378
▁this	-11.7378
▁방어율	-11.7378
▁총격전	-11.7378
▁바이올린	-11.7378
▁강우석	-11.7379
케스팅	-11.7379
▁베를린	-11.7379
▁성동일	-11.7379
▁박물관	-11.7379
▁러닝	-11.7379
▁박진영	-11.7379
▁코엔형제	-11.7379
▁나뿐인가	-11.7379
▁비둘기	-11.7379
▁심금을	-11.7379
▁케로로	-11.7379
▁평점조절위원회	-11.7379
▁기다림	-11.7379
▁김수미	-11.7379
▁브라질	-11.7379
▁예지원	-11.7379
▁이수근	-11.7379
▁쉴드	-11.7379
라운드	-11.7379
▁강원도	-11.7379
칩니다	-11.7379
▁슬로우	-11.7379
▁테러리스트	-11.7379
▁곤란	-11.7379
▁블루레이	-11.7379
▁시간가는줄모르고	-11.738
혈압	-11.738
▁but	-11.738
▁챙기	-11.738
▁가르침	-11.738
▁바둑	-11.738
▁촌스러움	-11.738
유재석	-11.738
▁세븐	-11.738
▁낯설	-11.738
▁찐한	-11.7381
▁for	-11.7381
▁시어머니	-11.7381
▁만듦	-11.7382
▁인디언	-11.7382
▁솔로	-11.7382
코리아	-11.7382
▁나올법한	-11.7382
▁굿바이	-11.7383
▁절실	-11.7383
▁물고기	-11.7383
바퀴	-11.7383
▁순간순간	-11.7384
▁Bad	-11.7385
▁감정표현	-11.7386
▁맥락	-11.7386
▁집합	-11.7386
????????????????	-11.7387
▁0.1	-11.7387
▁보게되었는데	-11.7387
소린지	-11.7387
▁인위적	-11.7388
▁교양	-11.7388
▁풍기는	-11.7388
켈리	-11.7389
▁때로는	-11.7389
▁마스터	-11.7389
▁할말없다	-11.7389
▁특색	-11.739
▁앨리스	-11.7391
▁명언	-11.7391
ay	-11.7391
▁으악	-11.7391
▁관련된	-11.7394
▁제미있	-11.7394
▁집중할	-11.7394
▁비교된다	-11.7395
배워	-11.7396
▁놀랍네요	-11.7396
플레이	-11.7396
▁돋보였	-11.7397
▁좋겠는데	-11.7397
▁이제껏	-11.7398
▁반가웠	-11.7399
▁녹음	-11.7399
▁격투씬	-11.7399
▁갈망	-11.74
▁야수	-11.7401
▁흘러나오는	-11.7401
▁아니자나	-11.7403
▁사골	-11.7403
죽는줄알았다	-11.7404
▁패배	-11.7405
▁괜찮다고	-11.7406
▁알려진	-11.7406
▁사자	-11.7406
▁소유진	-11.7407
▁만들어놓고	-11.7407
▁산타	-11.7407
▁눈물나게	-11.7407
▁만들어주는	-11.7407
ang	-11.7407
▁어렷을때	-11.7407
▁미숙	-11.7407
▁이기심	-11.7409
다운받아	-11.741
▁조쉬	-11.741
▁다있어	-11.7411
▁올라갈때	-11.7411
▁생긴다	-11.7415
▁시작된다	-11.7417
▁감안하고	-11.7417
▁아쉬울뿐	-11.7417
▁나이먹고	-11.7417
▁중국판	-11.7419
▁하나씩	-11.742
▁다있냐	-11.742
▁봤었지	-11.742
▁매력있다	-11.742
▁들었던	-11.7421
와함께	-11.7421
있는척	-11.7422
▁다시보고싶다	-11.7422
▁건너	-11.7423
▁잼남	-11.7426
▁친구한테	-11.7426
▁호흡이	-11.7427
▁잘하시고	-11.7429
▁귀엽네요	-11.743
징글	-11.7431
▁울린다	-11.7431
퍼센트	-11.7431
▁맞나요	-11.7433
하니깐	-11.7433
▁보시기	-11.7434
▁안들었	-11.7435
갑시다	-11.7435
▁장난치는	-11.7438
▁시시하고	-11.7439
▁자녀	-11.7439
▁월화	-11.7439
▁괴기	-11.744
▁허무맹랑한	-11.744
케이온	-11.7441
▁있었네요	-11.7444
▁갑이다	-11.7444
▁벗어난	-11.7444
▁스님	-11.7445
▁내취향은	-11.7445
▁그러는데	-11.7446
▁치밀하고	-11.7446
▁지나가는	-11.7446
▁씁쓸하다	-11.7449
남아서	-11.7449
그놈의	-11.745
ᄒᄃᄃ	-11.7451
▁안되냐	-11.7451
▁기대이상으로	-11.7456
▁섹시하고	-11.7457
▁만들어버린	-11.7457
ia	-11.7458
호호	-11.7458
▁wh	-11.746
▁마지막장면에서	-11.7461
▁동양인	-11.7461
--;;	-11.7463
▁중요한지	-11.7463
보지마셈	-11.7466
▁다르지만	-11.7468
▁관우	-11.7469
반성	-11.747
▁자리를	-11.747
▁찍어서	-11.7471
틀어	-11.7476
▁친구들과	-11.7476
▁무시하는	-11.7477
▁종교적인	-11.748
[...]
